{
  "version": "1.0",
  "truncation": null,
  "padding": null,
  "added_tokens": [
    {
      "id": 0,
      "content": "[PAD]",
      "single_word": false,
      "lstrip": false,
      "rstrip": false,
      "normalized": false,
      "special": true
    },
    {
      "id": 1,
      "content": "[UNK]",
      "single_word": false,
      "lstrip": false,
      "rstrip": false,
      "normalized": false,
      "special": true
    },
    {
      "id": 2,
      "content": "<|endoftext|>",
      "single_word": false,
      "lstrip": false,
      "rstrip": false,
      "normalized": false,
      "special": true
    }
  ],
  "normalizer": null,
  "pre_tokenizer": {
    "type": "ByteLevel",
    "add_prefix_space": false,
    "trim_offsets": true,
    "use_regex": true
  },
  "post_processor": {
    "type": "ByteLevel",
    "add_prefix_space": true,
    "trim_offsets": false,
    "use_regex": true
  },
  "decoder": {
    "type": "ByteLevel",
    "add_prefix_space": true,
    "trim_offsets": true,
    "use_regex": true
  },
  "model": {
    "type": "BPE",
    "dropout": null,
    "unk_token": "[UNK]",
    "continuing_subword_prefix": null,
    "end_of_word_suffix": null,
    "fuse_unk": false,
    "byte_fallback": false,
    "ignore_merges": false,
    "vocab": {
      "[PAD]": 0,
      "[UNK]": 1,
      "<|endoftext|>": 2,
      "!": 3,
      "\"": 4,
      "#": 5,
      "$": 6,
      "%": 7,
      "&": 8,
      "'": 9,
      "(": 10,
      ")": 11,
      "*": 12,
      "+": 13,
      ",": 14,
      "-": 15,
      ".": 16,
      "/": 17,
      "0": 18,
      "1": 19,
      "2": 20,
      "3": 21,
      "4": 22,
      "5": 23,
      "6": 24,
      "7": 25,
      "8": 26,
      "9": 27,
      ":": 28,
      ";": 29,
      "<": 30,
      "=": 31,
      ">": 32,
      "?": 33,
      "@": 34,
      "A": 35,
      "B": 36,
      "C": 37,
      "D": 38,
      "E": 39,
      "F": 40,
      "G": 41,
      "H": 42,
      "I": 43,
      "J": 44,
      "K": 45,
      "L": 46,
      "M": 47,
      "N": 48,
      "O": 49,
      "P": 50,
      "Q": 51,
      "R": 52,
      "S": 53,
      "T": 54,
      "U": 55,
      "V": 56,
      "W": 57,
      "X": 58,
      "Y": 59,
      "Z": 60,
      "[": 61,
      "\\": 62,
      "]": 63,
      "^": 64,
      "_": 65,
      "`": 66,
      "a": 67,
      "b": 68,
      "c": 69,
      "d": 70,
      "e": 71,
      "f": 72,
      "g": 73,
      "h": 74,
      "i": 75,
      "j": 76,
      "k": 77,
      "l": 78,
      "m": 79,
      "n": 80,
      "o": 81,
      "p": 82,
      "q": 83,
      "r": 84,
      "s": 85,
      "t": 86,
      "u": 87,
      "v": 88,
      "w": 89,
      "x": 90,
      "y": 91,
      "z": 92,
      "{": 93,
      "|": 94,
      "}": 95,
      "~": 96,
      "¡": 97,
      "¢": 98,
      "£": 99,
      "¤": 100,
      "¥": 101,
      "¦": 102,
      "§": 103,
      "¨": 104,
      "©": 105,
      "ª": 106,
      "«": 107,
      "¬": 108,
      "®": 109,
      "¯": 110,
      "°": 111,
      "±": 112,
      "²": 113,
      "³": 114,
      "´": 115,
      "µ": 116,
      "¶": 117,
      "·": 118,
      "¸": 119,
      "¹": 120,
      "º": 121,
      "»": 122,
      "¼": 123,
      "½": 124,
      "¾": 125,
      "¿": 126,
      "À": 127,
      "Á": 128,
      "Â": 129,
      "Ã": 130,
      "Ä": 131,
      "Å": 132,
      "Æ": 133,
      "Ç": 134,
      "È": 135,
      "É": 136,
      "Ê": 137,
      "Ë": 138,
      "Ì": 139,
      "Í": 140,
      "Î": 141,
      "Ï": 142,
      "Ð": 143,
      "Ñ": 144,
      "Ò": 145,
      "Ó": 146,
      "Ô": 147,
      "Õ": 148,
      "Ö": 149,
      "×": 150,
      "Ø": 151,
      "Ù": 152,
      "Ú": 153,
      "Û": 154,
      "Ü": 155,
      "Ý": 156,
      "Þ": 157,
      "ß": 158,
      "à": 159,
      "á": 160,
      "â": 161,
      "ã": 162,
      "ä": 163,
      "å": 164,
      "æ": 165,
      "ç": 166,
      "è": 167,
      "é": 168,
      "ê": 169,
      "ë": 170,
      "ì": 171,
      "í": 172,
      "î": 173,
      "ï": 174,
      "ð": 175,
      "ñ": 176,
      "ò": 177,
      "ó": 178,
      "ô": 179,
      "õ": 180,
      "ö": 181,
      "÷": 182,
      "ø": 183,
      "ù": 184,
      "ú": 185,
      "û": 186,
      "ü": 187,
      "ý": 188,
      "þ": 189,
      "ÿ": 190,
      "Ā": 191,
      "ā": 192,
      "Ă": 193,
      "ă": 194,
      "Ą": 195,
      "ą": 196,
      "Ć": 197,
      "ć": 198,
      "Ĉ": 199,
      "ĉ": 200,
      "Ċ": 201,
      "ċ": 202,
      "Č": 203,
      "č": 204,
      "Ď": 205,
      "ď": 206,
      "Đ": 207,
      "đ": 208,
      "Ē": 209,
      "ē": 210,
      "Ĕ": 211,
      "ĕ": 212,
      "Ė": 213,
      "ė": 214,
      "Ę": 215,
      "ę": 216,
      "Ě": 217,
      "ě": 218,
      "Ĝ": 219,
      "ĝ": 220,
      "Ğ": 221,
      "ğ": 222,
      "Ġ": 223,
      "ġ": 224,
      "Ģ": 225,
      "ģ": 226,
      "Ĥ": 227,
      "ĥ": 228,
      "Ħ": 229,
      "ħ": 230,
      "Ĩ": 231,
      "ĩ": 232,
      "Ī": 233,
      "ī": 234,
      "Ĭ": 235,
      "ĭ": 236,
      "Į": 237,
      "į": 238,
      "İ": 239,
      "ı": 240,
      "Ĳ": 241,
      "ĳ": 242,
      "Ĵ": 243,
      "ĵ": 244,
      "Ķ": 245,
      "ķ": 246,
      "ĸ": 247,
      "Ĺ": 248,
      "ĺ": 249,
      "Ļ": 250,
      "ļ": 251,
      "Ľ": 252,
      "ľ": 253,
      "Ŀ": 254,
      "ŀ": 255,
      "Ł": 256,
      "ł": 257,
      "Ń": 258,
      "Ãł": 259,
      "Â¦": 260,
      "Â¦Â": 261,
      "Â§": 262,
      "ĠÃł": 263,
      "Â§Â": 264,
      "Â¦Â°": 265,
      "Â¾": 266,
      "Â§Âį": 267,
      "Â§Âĩ": 268,
      "Â¦Â¿": 269,
      "Â¦Âķ": 270,
      "Â¦Â¨": 271,
      "Â¦Â¯": 272,
      "Â¦Â¬": 273,
      "Â¦Â¤": 274,
      "Âª": 275,
      "Â¦Â¸": 276,
      "ÂªÃł": 277,
      "Â¦Â®": 278,
      "Â²": 279,
      "Â¦ÂŁ": 280,
      "Â§Âģ": 281,
      "Â¦Âı": 282,
      "Â¼": 283,
      "Â¦Â¦": 284,
      "Â¦ÂĹ": 285,
      "Â¦Âľ": 286,
      "Â¹": 287,
      "Â¦Â¶": 288,
      "Â¦ÂĤ": 289,
      "Â¤": 290,
      "Â¥": 291,
      "Â¥Â¤": 292,
      "Â§Âĭ": 293,
      "Â¦ÂĨ": 294,
      "Â¦Â·": 295,
      "Â¦ÂŃ": 296,
      "Â§ÂĢ": 297,
      "Â¦Âļ": 298,
      "Â¦Â£": 299,
      "Â¦Â¥": 300,
      "Â¦Âĩ": 301,
      "Â¦Â¡": 302,
      "Â¦Â§": 303,
      "Â¦ÂĽ": 304,
      "Â¦Âī": 305,
      "Â¦Âĸ": 306,
      "Â¦Âĵ": 307,
      "--": 308,
      "Â¦Â«": 309,
      "Â§ÂĤ": 310,
      "er": 311,
      "en": 312,
      "te": 313,
      "Â¦Âĥ": 314,
      "Â§Âĥ": 315,
      "of": 316,
      "xt": 317,
      "Â§Âĩ,": 318,
      "st": 319,
      "an": 320,
      "text": 321,
      "end": 322,
      "<|": 323,
      "|>": 324,
      "oftext": 325,
      "endoftext": 326,
      "ser": 327,
      "User": 328,
      "si": 329,
      "ant": 330,
      "ssi": 331,
      "stant": 332,
      "Assi": 333,
      "Assistant": 334,
      "Â§ÂĪ": 335,
      "----": 336,
      "Ġ-": 337,
      "Â¦Âĺ": 338,
      "Â¦Âģ": 339,
      "..": 340,
      "Â¦Âŀ": 341,
      "Â§Â§": 342,
      "Ġ*": 343,
      "Ġ\"": 344,
      "ut": 345,
      "Ġ1": 346,
      "ĠI": 347,
      "put": 348,
      "nput": 349,
      "Â¦Â¨,": 350,
      "--------": 351,
      "ĠInput": 352,
      "Â§Â¨": 353,
      "Â¦ÂĻ": 354,
      "Ġ=": 355,
      "Ġ(": 356,
      "Â§Â¦": 357,
      "Ġ2": 358,
      "....": 359,
      "Â¦ÂĿ": 360,
      "Ġt": 361,
      "Â§ÂĮ": 362,
      "Ġ3": 363,
      "Â¦Â¿,": 364,
      "Â§Â©": 365,
      "in": 366,
      "Ġ**": 367,
      "Ġx": 368,
      "Ġ`": 369,
      "----------------": 370,
      "Â§Â«": 371,
      "**": 372,
      "Â¦Â°,": 373,
      "he": 374,
      "Ġ4": 375,
      "Ġ5": 376,
      "Ġ+": 377,
      "Â§Â¯": 378,
      "Â¦Â¤,": 379,
      "on": 380,
      "Ġa": 381,
      "Ġc": 382,
      "##": 383,
      "__": 384,
      "Â§Â¨.": 385,
      "re": 386,
      "........": 387,
      "Â§Â§.": 388,
      "Ġthe": 389,
      "ĠÃ": 390,
      "Â§Â¬": 391,
      "Â§Â©.": 392,
      "or": 393,
      "Ġi": 394,
      "Â¦Â¯,": 395,
      "Â§Âİ": 396,
      "Â§Â®": 397,
      "le": 398,
      "--------------------------------": 399,
      "))": 400,
      "ti": 401,
      "Â§ÂŃ": 402,
      "Ġf": 403,
      "((": 404,
      "Ġ6": 405,
      "Ġb": 406,
      "Ġ<": 407,
      "Ġp": 408,
      "al": 409,
      "Ġs": 410,
      "Ġ8": 411,
      "00": 412,
      "Â¦Â®,": 413,
      "Ġn": 414,
      "Â§Â«.": 415,
      "ar": 416,
      "Ġ[": 417,
      "Â¦Â¸,": 418,
      "Â¦Âķ,": 419,
      "................": 420,
      "Ġd": 421,
      "Â§Â¦.": 422,
      "th": 423,
      "Ġ0": 424,
      "####": 425,
      "Ġw": 426,
      "ĠÃ¢": 427,
      "ĠA": 428,
      "tion": 429,
      "Â¦Â¨?": 430,
      "Â¦Â£,": 431,
      "ĠC": 432,
      "****": 433,
      "um": 434,
      "ing": 435,
      "Ġin": 436,
      "Â§ÂĢ,": 437,
      "Ġan": 438,
      "Ġ``": 439,
      "Ġ9": 440,
      "Â§Âĩ?": 441,
      "Ġ7": 442,
      "____": 443,
      "at": 444,
      "Ġm": 445,
      "Ġre": 446,
      "se": 447,
      "Â§Âĭ,": 448,
      "Â¦ÂŁ,": 449,
      "om": 450,
      "Ġ```": 451,
      "Ã¢": 452,
      "li": 453,
      "Ġ10": 454,
      "ent": 455,
      "Ġto": 456,
      "ĠB": 457,
      "ou": 458,
      "Ġ#": 459,
      "Â§Â¬.": 460,
      "Ġ/": 461,
      "ÂĢ": 462,
      "Ġe": 463,
      "----------------------------------------------------------------": 464,
      "\",": 465,
      "Â¦Âĩ,": 466,
      "Â¦Â¨-": 467,
      "Ġof": 468,
      "Ġy": 469,
      "ÂĶ": 470,
      "ÂĪ": 471,
      "Â¦Â¿-": 472,
      "am": 473,
      "==": 474,
      "Ġ$": 475,
      "ÂĪÂ": 476,
      "Â¦Â¿?": 477,
      "ĠT": 478,
      "((((": 479,
      "Â¦Â¨:": 480,
      "))))": 481,
      "od": 482,
      "hi": 483,
      "Ġis": 484,
      "ad": 485,
      "ĠH": 486,
      "es": 487,
      "lo": 488,
      "Â¦ÂĤ,": 489,
      "Ġand": 490,
      "la": 491,
      "ct": 492,
      "ur": 493,
      "ge": 494,
      "ri": 495,
      "ĠÃĮ": 496,
      "Ġu": 497,
      "Â¦Â¬,": 498,
      "................................": 499,
      "Â¦Â¢": 500,
      "Â¦Â¨\"": 501,
      "Ġst": 502,
      "Â¦Âĵ,": 503,
      "::": 504,
      "Âĩ": 505,
      "########": 506,
      "ÂĶÂĢ": 507,
      "Â¦Â¦,": 508,
      "Â§Â®.": 509,
      "Ġ{": 510,
      "Â¦Âĥ**": 511,
      "Ġr": 512,
      "********": 513,
      "Â§ÂŃ.": 514,
      "Â¦Â¿)": 515,
      "Â¦Âľ,": 516,
      "ht": 517,
      "int": 518,
      "Ġpr": 519,
      "Â¦Âĩ-": 520,
      "ate": 521,
      "Ġde": 522,
      "Ġth": 523,
      "Â¦Â¸-": 524,
      "):": 525,
      "ed": 526,
      "Ġfor": 527,
      "Ġv": 528,
      "ch": 529,
      "ol": 530,
      "Â§ÂĢ?": 531,
      "ĠS": 532,
      "Ġ'": 533,
      "ord": 534,
      "Â¦Â¿\"": 535,
      "tur": 536,
      "Â§Âģ,": 537,
      "Â¦ÂĲ": 538,
      "Â§Â¯.": 539,
      "turn": 540,
      "Ġ_": 541,
      "Ġh": 542,
      "Ġ}": 543,
      "ction": 544,
      "ve": 545,
      "ation": 546,
      "ple": 547,
      "ter": 548,
      "xx": 549,
      "--------------------------------------------------------------------------------------------------------------------------------": 550,
      "ra": 551,
      "ce": 552,
      "Â¥Â¤\"": 553,
      "Â§Âĩ\"": 554,
      "Ġreturn": 555,
      "ber": 556,
      "Ġ12": 557,
      "</": 558,
      "Ġ20": 559,
      "ment": 560,
      "ue": 561,
      "Â¦ÂĹ,": 562,
      "ring": 563,
      "un": 564,
      "ul": 565,
      "Ġnum": 566,
      "Â¦Âķ-": 567,
      "====": 568,
      "el": 569,
      "list": 570,
      "((((((((": 571,
      "oun": 572,
      "Ġwi": 573,
      "ĠF": 574,
      "))))))))": 575,
      "=\"": 576,
      "Âľ": 577,
      "ss": 578,
      "ÂĪÂĻ": 579,
      "Ġar": 580,
      "ck": 581,
      "it": 582,
      "Â¦Â°\"": 583,
      "ĠP": 584,
      "ver": 585,
      "his": 586,
      "Â¦Â¬-": 587,
      "),": 588,
      "10": 589,
      "Ġ24": 590,
      "ĠD": 591,
      "ere": 592,
      "Ġg": 593,
      "Â¦Â°-": 594,
      "Ġif": 595,
      "________": 596,
      "ow": 597,
      "Ġ((": 598,
      "ame": 599,
      "pe": 600,
      "................................................................": 601,
      "Ġl": 602,
      "Â¦Âķ)": 603,
      "ted": 604,
      "ab": 605,
      "Â¦Â¶,": 606,
      "yth": 607,
      "Ġprint": 608,
      "ir": 609,
      "Â¦Â¤?": 610,
      "Â¦Â¡-": 611,
      "ython": 612,
      "################": 613,
      "unction": 614,
      "out": 615,
      "ĠN": 616,
      "Â¦Â§,": 617,
      "Â¦Âĸ,": 618,
      "ght": 619,
      "iv": 620,
      "Â¦Âı-": 621,
      "Ġthat": 622,
      "Â¦ÂŁ-": 623,
      "et": 624,
      "\":": 625,
      "id": 626,
      "Ġ17": 627,
      "Â¦Â¡,": 628,
      "qu": 629,
      "Ġ15": 630,
      "****************": 631,
      "ma": 632,
      "Ġfunction": 633,
      "op": 634,
      "Ġ</": 635,
      "::::": 636,
      "ot": 637,
      "Ġ19": 638,
      "Ġcon": 639,
      "000": 640,
      "ode": 641,
      "Â§Â·": 642,
      "il": 643,
      "ray": 644,
      "ĠÃĥ": 645,
      "Â¦Âĺ.": 646,
      "mp": 647,
      "Â§Â§,": 648,
      "de": 649,
      "Â§Â¦,": 650,
      "Ġdef": 651,
      "**:": 652,
      "Ġlo": 653,
      "Â¦Â¨!": 654,
      "ata": 655,
      "ic": 656,
      "Ġnumber": 657,
      "Â¦Â¸\"": 658,
      "ÂĹ": 659,
      "ĠThe": 660,
      "ÂĪÂļ": 661,
      ");": 662,
      "\\\\": 663,
      "Ġma": 664,
      "ew": 665,
      "ĠO": 666,
      "ĠW": 667,
      "Ġwith": 668,
      "ult": 669,
      "Â¦Â®-": 670,
      "Â¦Â¨)": 671,
      "ÂľÂĶ": 672,
      "ÃĽ": 673,
      "Ġ18": 674,
      "ĠHere": 675,
      "as": 676,
      "Ãĺ": 677,
      "age": 678,
      "ub": 679,
      "lement": 680,
      "Ġlist": 681,
      "sult": 682,
      "Â¦Âĭ": 683,
      "Ġit": 684,
      "Ġal": 685,
      "Ġbe": 686,
      "ly": 687,
      "Ġ11": 688,
      "ng": 689,
      "xxxx": 690,
      "----------------------------------------------------------------------------------------------------------------------------------------------------------------------------------------------------------------------------------------------------------------": 691,
      "\">": 692,
      "Ġval": 693,
      "num": 694,
      "Â§Â¨,": 695,
      "ample": 696,
      "20": 697,
      "@@": 698,
      "Ġcan": 699,
      "Â¦Â°)": 700,
      "Ġex": 701,
      "Â¦Âģ,": 702,
      "ĠR": 703,
      "Ġtr": 704,
      "ers": 705,
      "ort": 706,
      "],": 707,
      "========": 708,
      "Â¦ÂŁ\"": 709,
      "Â¦Â«-": 710,
      "im": 711,
      "Ġstring": 712,
      "uct": 713,
      "Ġad": 714,
      "ĠE": 715,
      "()": 716,
      "Ġj": 717,
      "Ġ____": 718,
      "adi": 719,
      "Â¦Â¸)": 720,
      "((((((((((((((((": 721,
      "pr": 722,
      "Â§Âĩ:": 723,
      "Ġelement": 724,
      "alÃł": 725,
      "Ġk": 726,
      "gr": 727,
      "com": 728,
      "and": 729,
      "Ġwe": 730,
      "add": 731,
      "ine": 732,
      "))))))))))))))))": 733,
      "is": 734,
      "Ġ16": 735,
      "right": 736,
      "',": 737,
      "python": 738,
      "Ġas": 739,
      "Â¦Â¯-": 740,
      "ÂĢÂ": 741,
      "able": 742,
      "Ġch": 743,
      "12": 744,
      "Ġint": 745,
      "Â¦Â®)": 746,
      "Ġ100": 747,
      "ound": 748,
      "Ġcla": 749,
      "Ġresult": 750,
      "ÂĪÂŀ": 751,
      "Â¦Âļ-": 752,
      "Â§ÂŃ,": 753,
      "sing": 754,
      "Â¨": 755,
      "Ġ^": 756,
      "Ġon": 757,
      "ount": 758,
      "Ġuse": 759,
      "head": 760,
      "Ġby": 761,
      "(\"": 762,
      "Ġse": 763,
      "word": 764,
      "Â¦Âļ,": 765,
      "ip": 766,
      "19": 767,
      "ld": 768,
      "min": 769,
      "Â°": 770,
      "ml": 771,
      "Ġarray": 772,
      "ust": 773,
      "ĠG": 774,
      "act": 775,
      "ase": 776,
      "Â¦Â°:": 777,
      "html": 778,
      "ĠThis": 779,
      "ĠM": 780,
      "ty": 781,
      "Â§Â©,": 782,
      "Ġ13": 783,
      "art": 784,
      "ÂĢÂ¢": 785,
      "Âķ": 786,
      "Ġ30": 787,
      "ind": 788,
      "rom": 789,
      "Â§Âĩ!": 790,
      "Â§Âģ-": 791,
      "Ġcal": 792,
      "Â¦Âķ\"": 793,
      "data": 794,
      "Ġyou": 795,
      "oduct": 796,
      "Ġ25": 797,
      "Â§Â¯-": 798,
      "ange": 799,
      "Ġcol": 800,
      "Ġ14": 801,
      "Â¦Â¿.": 802,
      "Ġcode": 803,
      "Â§Âĩ)": 804,
      "if": 805,
      "Ġ//": 806,
      "get": 807,
      "\")": 808,
      "Â¦Â£-": 809,
      "Ġare": 810,
      "Ġinput": 811,
      "ĠL": 812,
      "Ġ==": 813,
      "Ġpro": 814,
      "Ġclass": 815,
      "for": 816,
      "adition": 817,
      "rt": 818,
      "Ġtradition": 819,
      "ore": 820,
      "Ġthis": 821,
      "Ġcom": 822,
      "################################": 823,
      "Â§ÂĢ-": 824,
      "string": 825,
      "Â¦Â¤\"": 826,
      "................................................................................................................................": 827,
      "ÂĦ": 828,
      "Ġwhi": 829,
      "Ġusing": 830,
      "pp": 831,
      "qrt": 832,
      "Â§Â«,": 833,
      "Ġsi": 834,
      "********************************": 835,
      "ze": 836,
      "ĠX": 837,
      "ach": 838,
      "ÃĻ": 839,
      "Ġ>": 840,
      "50": 841,
      "::::::::": 842,
      "Ġle": 843,
      "us": 844,
      "Âį": 845,
      "Ġdeter": 846,
      "Ġ&": 847,
      "Ġo": 848,
      "Ġvalue": 849,
      "av": 850,
      "14": 851,
      "...": 852,
      "Ġ##": 853,
      "div": 854,
      "Ġ99": 855,
      "ĠHT": 856,
      "Â¦Â®]": 857,
      "eng": 858,
      "Ġexample": 859,
      "ula": 860,
      "Ġdetermin": 861,
      "Ġchar": 862,
      "Â¦Âĩ)": 863,
      "Ġhi": 864,
      "Ġor": 865,
      "Â§Â¨-": 866,
      "form": 867,
      "___": 868,
      "ÂľÂį": 869,
      "ure": 870,
      "Ġstr": 871,
      "Â§Â¨)": 872,
      "Ġfrom": 873,
      "Ġpo": 874,
      "Ġtext": 875,
      "Ġword": 876,
      "ĠtraditionalÃł": 877,
      "11": 878,
      "Â¦ÂŁ)": 879,
      "ak": 880,
      "ww": 881,
      "ĠJ": 882,
      "Ġ<>": 883,
      "Â¦Â®\"": 884,
      "Ġme": 885,
      "tem": 886,
      "are": 887,
      "Â¦Â·,": 888,
      "new": 889,
      "con": 890,
      "ength": 891,
      "Ġpip": 892,
      "ĠZ": 893,
      "ustom": 894,
      "ps": 895,
      "irst": 896,
      "ĠIn": 897,
      "name": 898,
      "24": 899,
      "ĠV": 900,
      "ack": 901,
      "Â¦Â£.": 902,
      "Ġ60": 903,
      "ML": 904,
      "wo": 905,
      "`,": 906,
      "Â§Âĭ-": 907,
      "40": 908,
      "reate": 909,
      "Ġ50": 910,
      "ĠÃĤ": 911,
      "ĠBC": 912,
      "pt": 913,
      "ll": 914,
      "\\\\\\\\": 915,
      "$$": 916,
      "16": 917,
      "rect": 918,
      "ther": 919,
      "lic": 920,
      "ys": 921,
      "Ġcm": 922,
      "Ġsum": 923,
      "td": 924,
      "umn": 925,
      "'s": 926,
      "gram": 927,
      "ori": 928,
      "mail": 929,
      "ĠHTML": 930,
      "ble": 931,
      "Ġ200": 932,
      "++": 933,
      "Â¦ÂŃ,": 934,
      "Ġrange": 935,
      "Ġmax": 936,
      "di": 937,
      "Â¦Â¥,": 938,
      "Ġeach": 939,
      "ody": 940,
      "ong": 941,
      "________________": 942,
      "Â¦Â¿:": 943,
      "Â¦Â¤-": 944,
      "Ġarr": 945,
      "news": 946,
      "ary": 947,
      "Â¦Âĩ\"": 948,
      "Â¦Â¡\"": 949,
      "number": 950,
      "Ġqu": 951,
      "xxxxxxxx": 952,
      "ĠU": 953,
      "low": 954,
      "me": 955,
      "px": 956,
      "-----": 957,
      "@@@@": 958,
      "15": 959,
      "Ġtwo": 960,
      "Ġwh": 961,
      "order": 962,
      "Ġnumbers": 963,
      "str": 964,
      "ft": 965,
      "Ġbo": 966,
      "ect": 967,
      "tit": 968,
      "ess": 969,
      "ta": 970,
      "Â§Âĭ\"": 971,
      "ard": 972,
      "ĠPython": 973,
      "25": 974,
      "Ġ(((": 975,
      "cl": 976,
      "heck": 977,
      "================": 978,
      "CT": 979,
      "val": 980,
      "Â¦Â¬\"": 981,
      "--------------------------------------------------------------------------------------------------------------------------------------------------------------------------------------------------------------------------------------------------------------------------------------------------------------------------------------------------------------------------------------------------------------------------------------------------------------------------------------------------------------------------------": 982,
      "EN": 983,
      "urr": 984,
      "ĠÃĺ": 985,
      "33": 986,
      "output": 987,
      "Â§Âĩ.": 988,
      "Â¦Âı)": 989,
      "Â§Â®,": 990,
      "Ġwill": 991,
      "18": 992,
      "ĠY": 993,
      "ence": 994,
      "cula": 995,
      "Â§Â§)": 996,
      "lab": 997,
      "tr": 998,
      "htt": 999,
      "ight": 1000,
      "Â¦Â¿!": 1001,
      "((((((((((((((((((((((((((((((((": 1002,
      "Â§ÂĢ\"": 1003,
      "Ġimp": 1004,
      "lay": 1005,
      "dex": 1006,
      "Ġ=,": 1007,
      "title": 1008,
      "Â§Âĩ-": 1009,
      "CE": 1010,
      "))))))))))))))))))))))))))))))))": 1011,
      "one": 1012,
      "Ġadd": 1013,
      "75": 1014,
      "ID": 1015,
      "cri": 1016,
      "Âº": 1017,
      "Â¦Â°.": 1018,
      "rectrect": 1019,
      "][": 1020,
      "gh": 1021,
      "stor": 1022,
      "Â¦Â¨.": 1023,
      "Ġ(-": 1024,
      "Â¦Â£\"": 1025,
      "Ġfirst": 1026,
      "Ġname": 1027,
      "Ġel": 1028,
      "bo": 1029,
      "tic": 1030,
      "ke": 1031,
      "Â¦Âĩ!": 1032,
      "ery": 1033,
      "res": 1034,
      "ave": 1035,
      "Â§Â¬,": 1036,
      "ity": 1037,
      "Ġelse": 1038,
      "//": 1039,
      "mple": 1040,
      "Â¦Âĸ)": 1041,
      "PM": 1042,
      "Ġcreate": 1043,
      "ENCE": 1044,
      "ER": 1045,
      "body": 1046,
      "ext": 1047,
      "Â¦Â¨]": 1048,
      "ans": 1049,
      "tive": 1050,
      "Ġun": 1051,
      "product": 1052,
      "://": 1053,
      "ac": 1054,
      "Ġ00": 1055,
      "Ġ35": 1056,
      "label": 1057,
      "Ġsqrt": 1058,
      "Ġprogram": 1059,
      "https": 1060,
      "LE": 1061,
      "Âī": 1062,
      "clu": 1063,
      "culate": 1064,
      "our": 1065,
      "Â¦ÂĽ,": 1066,
      "elf": 1067,
      "ÃĺÂº": 1068,
      "Ġhistor": 1069,
      "ENCEENCE": 1070,
      "ÃĺÂºÃĺ": 1071,
      "red": 1072,
      "Ġall": 1073,
      "ÃĤ": 1074,
      "omple": 1075,
      "Ġcharact": 1076,
      "der": 1077,
      "oot": 1078,
      "Ġthen": 1079,
      "249": 1080,
      "urrent": 1081,
      ":**": 1082,
      "`.": 1083,
      "Ġdi": 1084,
      "Ġvar": 1085,
      "gin": 1086,
      "Â¦Â£?": 1087,
      "ang": 1088,
      "Ġself": 1089,
      "Ġte": 1090,
      "Ġloop": 1091,
      "ompleted": 1092,
      "input": 1093,
      "Â¦ÂĹ)": 1094,
      "QL": 1095,
      "Ġid": 1096,
      "Â¦Â¯\"": 1097,
      "Ġmy": 1098,
      "andom": 1099,
      "ustomer": 1100,
      "ton": 1101,
      "Ġhistoric": 1102,
      "45": 1103,
      "Â¦Âķ.": 1104,
      "ĠIf": 1105,
      "Ġimport": 1106,
      "ost": 1107,
      "Â§Â¦%": 1108,
      "Â§Â¦-": 1109,
      "Ġ+=": 1110,
      "iven": 1111,
      "ph": 1112,
      "Âŀ": 1113,
      "Ġcheck": 1114,
      "ould": 1115,
      "type": 1116,
      "ĠII": 1117,
      "Ġnew": 1118,
      "tal": 1119,
      "utton": 1120,
      "Ġat": 1121,
      "ava": 1122,
      "Ġtable": 1123,
      "Ġnot": 1124,
      "Ġwhich": 1125,
      "ÂŀÂ¤": 1126,
      "21": 1127,
      "Ġli": 1128,
      "que": 1129,
      "yle": 1130,
      "99": 1131,
      "Â¦Â°]": 1132,
      "Â¦ÂĨ-": 1133,
      "Ġdata": 1134,
      "Ġgiven": 1135,
      "ĠRe": 1136,
      "ay": 1137,
      "gn": 1138,
      "Â¦Â°?": 1139,
      "Â¦Âĺ,": 1140,
      "Âģ": 1141,
      "Â§Â§/": 1142,
      "30": 1143,
      "lf": 1144,
      "Ġtak": 1145,
      "ag": 1146,
      "Â§Â¯,": 1147,
      "Ġset": 1148,
      "ion": 1149,
      "Ġz": 1150,
      "ass": 1151,
      "gori": 1152,
      "ont": 1153,
      "orted": 1154,
      "Ġsub": 1155,
      "Ġcolumn": 1156,
      "Ġtotal": 1157,
      "pec": 1158,
      "!\"": 1159,
      "col": 1160,
      "Ġelements": 1161,
      "ance": 1162,
      "Ġac": 1163,
      "ree": 1164,
      "################################################################": 1165,
      "****************************************************************": 1166,
      "RO": 1167,
      "we": 1168,
      "ark": 1169,
      "::::::::::::::::": 1170,
      "\".": 1171,
      "Â¦Â¤)": 1172,
      "self": 1173,
      "ole": 1174,
      "Â¦Â¨\",": 1175,
      "Ġ|": 1176,
      "lot": 1177,
      "enc": 1178,
      "ap": 1179,
      "Â¦Âľ\"": 1180,
      "Ġ85": 1181,
      "arr": 1182,
      "thod": 1183,
      "verb": 1184,
      "200": 1185,
      "ype": 1186,
      "edÃł": 1187,
      "Ġreturns": 1188,
      "Ġlen": 1189,
      "->": 1190,
      "Completed": 1191,
      "ff": 1192,
      "Ġfind": 1193,
      "Ġ<<": 1194,
      "Ġuser": 1195,
      "Ġrow": 1196,
      "ationÃł": 1197,
      "Ġquery": 1198,
      "Ġend": 1199,
      "Ġop": 1200,
      "Â¦ÂĹ-": 1201,
      "Ġcurrent": 1202,
      "ument": 1203,
      "og": 1204,
      "Ġ40": 1205,
      "Ġ<-": 1206,
      "100": 1207,
      "Ġhe": 1208,
      "ĠBound": 1209,
      "ear": 1210,
      "Â¸": 1211,
      "Â¦ÂĻ,": 1212,
      "Ġadverb": 1213,
      "Ġcalculate": 1214,
      "60": 1215,
      "Ġ.": 1216,
      "Ġpri": 1217,
      "plot": 1218,
      "ĠdeterminedÃł": 1219,
      "Ġmethod": 1220,
      "In": 1221,
      "tring": 1222,
      "Ġoutput": 1223,
      "Â¦Â¿\",": 1224,
      "array": 1225,
      "to": 1226,
      "Ġ]": 1227,
      "ali": 1228,
      "thm": 1229,
      "ublic": 1230,
      "................................................................................................................................................................................................................................................................": 1231,
      "ove": 1232,
      "ĠNine": 1233,
      "formation": 1234,
      "count": 1235,
      "Ġdis": 1236,
      "Ġhas": 1237,
      "gorithm": 1238,
      "Ġ45": 1239,
      "ĠhistoricalÃł": 1240,
      "sp": 1241,
      "teg": 1242,
      "Ġpage": 1243,
      "Ġpublic": 1244,
      "alse": 1245,
      "ally": 1246,
      "SS": 1247,
      "Ġ\"\"": 1248,
      "Â§Â©)": 1249,
      "ĠÃı": 1250,
      "])": 1251,
      "sum": 1252,
      "Â¦Â®:": 1253,
      "ates": 1254,
      "char": 1255,
      "Ġarg": 1256,
      "ĠdeterminationÃł": 1257,
      "tain": 1258,
      "Â¦Â¯:": 1259,
      "Ġ32": 1260,
      "Ġne": 1261,
      "ues": 1262,
      "vi": 1263,
      "set": 1264,
      "Â¦ÂĤ\"": 1265,
      "Ġ[\"": 1266,
      "oc": 1267,
      "Ġ________": 1268,
      "Â¦Âľ-": 1269,
      "Ġtakes": 1270,
      "Ġvari": 1271,
      "Ġsh": 1272,
      "ground": 1273,
      "ackground": 1274,
      "app": 1275,
      "br": 1276,
      "rou": 1277,
      "up": 1278,
      "Ġcount": 1279,
      "Ġalgorithm": 1280,
      "Ġused": 1281,
      "sqrt": 1282,
      "orld": 1283,
      "/(": 1284,
      "play": 1285,
      "Ġorder": 1286,
      "Ġ21": 1287,
      "print": 1288,
      "AR": 1289,
      "Ġhave": 1290,
      "ELE": 1291,
      "Ġ**:": 1292,
      "ome": 1293,
      "verse": 1294,
      "Ġwords": 1295,
      "www": 1296,
      "Ġform": 1297,
      "\\\\\\\\\\\\\\\\": 1298,
      "cript": 1299,
      "assword": 1300,
      "date": 1301,
      "email": 1302,
      "Ġ\\": 1303,
      "Ġcolor": 1304,
      "clude": 1305,
      "par": 1306,
      "Ġ:": 1307,
      "Ġtype": 1308,
      "ÂĪÂļ,": 1309,
      "17": 1310,
      "ok": 1311,
      "rue": 1312,
      "xample": 1313,
      "ink": 1314,
      "Ġroot": 1315,
      "ĠSQL": 1316,
      "Ġwhile": 1317,
      "$$$$": 1318,
      "ist": 1319,
      "Â¦ÂĪ": 1320,
      "Â¦Â¨**:": 1321,
      "Â¦Â¯)": 1322,
      "Â¦Â®],": 1323,
      "ime": 1324,
      "Ġ_______": 1325,
      "':": 1326,
      "Â¦Âķ:": 1327,
      "words": 1328,
      "ast": 1329,
      "iti": 1330,
      "ject": 1331,
      "my": 1332,
      "Ġthan": 1333,
      "The": 1334,
      "Ġlength": 1335,
      "ĠK": 1336,
      "Â§Âģ\"": 1337,
      "Â¦Â«,": 1338,
      "Ġiter": 1339,
      "ELECT": 1340,
      "yz": 1341,
      "reat": 1342,
      "13": 1343,
      "><": 1344,
      "Ġmain": 1345,
      "Â§Âĭ?": 1346,
      "size": 1347,
      "Ġ500": 1348,
      "xxxxxxxxxxxxxxxx": 1349,
      "Ãı": 1350,
      "gest": 1351,
      "Ġstrong": 1352,
      "@@@@@@@@": 1353,
      "80": 1354,
      "Aut": 1355,
      "^-": 1356,
      "pri": 1357,
      "sh": 1358,
      "style": 1359,
      "Ġstart": 1360,
      "Ġke": 1361,
      "Â§ÂĢ)": 1362,
      "Ġ27": 1363,
      "Ġ36": 1364,
      "led": 1365,
      "Ġrep": 1366,
      "ute": 1367,
      "Ġ%": 1368,
      "enti": 1369,
      "ÂĪÂŀ.": 1370,
      "ystem": 1371,
      "ROM": 1372,
      "Â§Â«%": 1373,
      "Ġper": 1374,
      "89": 1375,
      "fer": 1376,
      "ven": 1377,
      "Â¦Âĵ)": 1378,
      "Â§Â§-": 1379,
      "Ġproduct": 1380,
      "ello": 1381,
      "cond": 1382,
      "================================": 1383,
      "Ġla": 1384,
      "Â¦Â¡)": 1385,
      "ĠTo": 1386,
      "ĠFROM": 1387,
      "ener": 1388,
      "Ġspec": 1389,
      "Ġone": 1390,
      "Â¦Âı,": 1391,
      "ON": 1392,
      "Â§ÂĢ:": 1393,
      "Ġimple": 1394,
      "Ġ<!": 1395,
      "Ġemp": 1396,
      "ters": 1397,
      "22": 1398,
      "Ġpar": 1399,
      "Ġweb": 1400,
      "numbers": 1401,
      "Ġvariable": 1402,
      "mon": 1403,
      "read": 1404,
      "Ġbackground": 1405,
      "log": 1406,
      "old": 1407,
      "ĠWe": 1408,
      "Ġvalues": 1409,
      "Ġtemp": 1410,
      "length": 1411,
      "all": 1412,
      "Ġindex": 1413,
      "Ġstd": 1414,
      "Ġpoint": 1415,
      "Ġcharacter": 1416,
      "Â¸Â": 1417,
      "();": 1418,
      "ne": 1419,
      "os": 1420,
      "ĠQ": 1421,
      "Â¦Âĩ.": 1422,
      "Ġ->": 1423,
      "ĠCO": 1424,
      "Ġinteg": 1425,
      "Ġ75": 1426,
      "enter": 1427,
      "Ġup": 1428,
      "ĠCSS": 1429,
      "Ġboard": 1430,
      "resent": 1431,
      "Autom": 1432,
      ").": 1433,
      "Num": 1434,
      "ye": 1435,
      "Â¦Â¬?": 1436,
      "Ġfi": 1437,
      "Ġ90": 1438,
      "Ġyour": 1439,
      "Ġlet": 1440,
      "rectrectrectrect": 1441,
      "ĠstrongÃł": 1442,
      "Ġtheir": 1443,
      "Ġsc": 1444,
      "Ġequ": 1445,
      "++)": 1446,
      "essage": 1447,
      "((((((((((((((((((((((((((((((((((((((((((((((((((((((((((((((((": 1448,
      "include": 1449,
      "Ġfont": 1450,
      "Â¦Â¨!\"": 1451,
      "ĠYou": 1452,
      "))))))))))))))))))))))))))))))))))))))))))))))))))))))))))))))))": 1453,
      "rough": 1454,
      "erat": 1455,
      "Â§Âİ,": 1456,
      "Â¦Â¨?\"": 1457,
      "Ġrandom": 1458,
      "Ġits": 1459,
      "Ġmat": 1460,
      "Ġthrough": 1461,
      "its": 1462,
      "value": 1463,
      "----------------------------------------------------------------------------------------------------------------------------------------------------------------------------------------------------------------------------------------------------------------------------------------------------------------------------------------------------------------------------------------------------------------------------------------------------------------------------------------------------------------------------------------------------------------------------------------------------------------------------------------------------------------------------------------------------------------------------------------------------------------------------------------------------------------------------------------------------------------------------------------------------------------------------------------------------------------------------------------------------------------------------------------------------------------": 1464,
      "Automation": 1465,
      "row": 1466,
      "Ġright": 1467,
      "sition": 1468,
      "ref": 1469,
      "lif": 1470,
      "ĠSELECT": 1471,
      "Ġcont": 1472,
      "Ġlog": 1473,
      "Ġleft": 1474,
      "DO": 1475,
      "Ġget": 1476,
      "ending": 1477,
      "Ġ22": 1478,
      "Ġ80": 1479,
      "Ġcontain": 1480,
      "Ġimplement": 1481,
      "(-": 1482,
      "Â§Â¯)": 1483,
      "result": 1484,
      "les": 1485,
      "Ġ\"\"\"": 1486,
      "tri": 1487,
      "Â¦Â°\",": 1488,
      "Ġ1000": 1489,
      "Ġab": 1490,
      "Ġsort": 1491,
      "Ġcomp": 1492,
      "67": 1493,
      ":</": 1494,
      "sc": 1495,
      "Ġhtml": 1496,
      "Â¦Â¤!": 1497,
      "Ġmod": 1498,
      "lit": 1499,
      "vert": 1500,
      "123": 1501,
      "Ġ###": 1502,
      "414": 1503,
      "ry": 1504,
      "Ġhttps": 1505,
      "Â¦ÂĤ-": 1506,
      "Â§Â©-": 1507,
      "ell": 1508,
      "isi": 1509,
      "wi": 1510,
      "Â·": 1511,
      "Ġq": 1512,
      "Â§Âĩ;": 1513,
      "Â¦Â¿]": 1514,
      "Ġmar": 1515,
      "entence": 1516,
      "ĠFor": 1517,
      "________________________________": 1518,
      "PI": 1519,
      "RL": 1520,
      "Â¦Â¶-": 1521,
      "ENCEENCEENCEENCE": 1522,
      "55": 1523,
      "ĠIt": 1524,
      "Ġxyz": 1525,
      "Ġsp": 1526,
      "Ġcall": 1527,
      "Ġspecif": 1528,
      "Ġmargin": 1529,
      "Hello": 1530,
      "Ġ--": 1531,
      "Â§ÂĤ-": 1532,
      "Â§Â«)": 1533,
      "Â§Â«-": 1534,
      "Ġfol": 1535,
      "Ġdiv": 1536,
      "Ġreverse": 1537,
      "max": 1538,
      "main": 1539,
      "imum": 1540,
      "Ġargument": 1541,
      "ec": 1542,
      "Ġ,": 1543,
      "Â§Âĩ\",": 1544,
      "Ġsecond": 1545,
      "ÂģÂĦ": 1546,
      "Ġdisplay": 1547,
      "Ġneed": 1548,
      "Â¦ÂĶ": 1549,
      "Â¦Âĩ;": 1550,
      "Ġcustomer": 1551,
      "Ġ64": 1552,
      "Ġsorted": 1553,
      "Ġuses": 1554,
      "color": 1555,
      ".</": 1556,
      "RR": 1557,
      "Â§Â¦)": 1558,
      "Ġbet": 1559,
      "Ġstore": 1560,
      "ĠSystem": 1561,
      "PE": 1562,
      "[]": 1563,
      "];": 1564,
      "ace": 1565,
      "bject": 1566,
      "Ġ23": 1567,
      "Ġ`<": 1568,
      "Ġnam": 1569,
      "loye": 1570,
      "quare": 1571,
      "Ġsimple": 1572,
      "65": 1573,
      "String": 1574,
      "oid": 1575,
      "po": 1576,
      "sub": 1577,
      "ÂŁ": 1578,
      "Ã£": 1579,
      "Ġdark": 1580,
      "ulti": 1581,
      "ĠJava": 1582,
      "dition": 1583,
      "ween": 1584,
      "append": 1585,
      "!=": 1586,
      "oh": 1587,
      "left": 1588,
      "Ġany": 1589,
      "ations": 1590,
      "adding": 1591,
      "Number": 1592,
      ">`": 1593,
      "YPE": 1594,
      "^(": 1595,
      "Ġsu": 1596,
      "ĠARR": 1597,
      "Ġver": 1598,
      "iffer": 1599,
      "Ġother": 1600,
      "CTYPE": 1601,
      "cur": 1602,
      "Â¦Â¬)": 1603,
      "Â¦Â®!": 1604,
      "Â¦Â¦\"": 1605,
      "Ġap": 1606,
      "Ġwould": 1607,
      "DOCTYPE": 1608,
      "AT": 1609,
      "Â¦Â¯?": 1610,
      "Â¦Â¦-": 1611,
      "Â§Âĭ!": 1612,
      "ull": 1613,
      "imal": 1614,
      "header": 1615,
      "Name": 1616,
      "button": 1617,
      "ln": 1618,
      "mi": 1619,
      "per": 1620,
      "rder": 1621,
      "Â±": 1622,
      "Ġpadding": 1623,
      "Ġ70": 1624,
      "ĠTh": 1625,
      "Ġwid": 1626,
      "Ġcharacters": 1627,
      "Ġbetween": 1628,
      "ath": 1629,
      "item": 1630,
      "over": 1631,
      "ud": 1632,
      "()`": 1633,
      "reater": 1634,
      "ohn": 1635,
      "ied": 1636,
      "Ãĥ": 1637,
      "start": 1638,
      "Ġ29": 1639,
      "ĠÃ¯": 1640,
      "time": 1641,
      "Â§ÂŃ)": 1642,
      "Ġsol": 1643,
      "arch": 1644,
      "ĠAB": 1645,
      "Ġyear": 1646,
      "Ġcalled": 1647,
      "println": 1648,
      "Ġkey": 1649,
      "70": 1650,
      "move": 1651,
      "son": 1652,
      "sort": 1653,
      "Â¦Â°_": 1654,
      "Â¦Â¨;": 1655,
      "Â¦Âĵ\"": 1656,
      "Ġ[]": 1657,
      ")(": 1658,
      ")^": 1659,
      "HER": 1660,
      "SON": 1661,
      "rray": 1662,
      "Ġ----": 1663,
      "Â¦Â¸:": 1664,
      "Â¦Âĸ.": 1665,
      "ution": 1666,
      "index": 1667,
      "Ġ++": 1668,
      "Ġ<=": 1669,
      "ĠBY": 1670,
      "Ġ2020": 1671,
      "Ġsize": 1672,
      "ĠURL": 1673,
      "::::::::::::::::::::::::::::::::": 1674,
      "Ġfollow": 1675,
      "ES": 1676,
      "atic": 1677,
      "example": 1678,
      "ia": 1679,
      "mit": 1680,
      "pl": 1681,
      "Ġapp": 1682,
      "Ġpre": 1683,
      "ĠTrue": 1684,
      "Ġvoid": 1685,
      "area": 1686,
      "ĠIII": 1687,
      "********************************************************************************************************************************": 1688,
      "next": 1689,
      "ption": 1690,
      "sole": 1691,
      "ĠIV": 1692,
      "Ġ(\"": 1693,
      "Ġtime": 1694,
      "Â§Â®',": 1695,
      "lect": 1696,
      "Ġnums": 1697,
      "Ġwhere": 1698,
      "HERE": 1699,
      "AB": 1700,
      "En": 1701,
      "ov": 1702,
      "Ġmid": 1703,
      "ated": 1704,
      "35": 1705,
      "Ġ\",": 1706,
      "inally": 1707,
      "Ġcase": 1708,
      "ĠAPI": 1709,
      "Ġ123": 1710,
      "ĠdarkÃł": 1711,
      "ies": 1712,
      "ique": 1713,
      "ress": 1714,
      "atab": 1715,
      "Ġhref": 1716,
      "ĠPr": 1717,
      "Ġgener": 1718,
      "ĠWorld": 1719,
      "Ġwidth": 1720,
      "ain": 1721,
      "est": 1722,
      "mount": 1723,
      "user": 1724,
      "sion": 1725,
      "Ġ28": 1726,
      "Ġso": 1727,
      "Ġlink": 1728,
      "indow": 1729,
      "Ġrepresent": 1730,
      "Ġlast": 1731,
      "atabase": 1732,
      "\");": 1733,
      "cle": 1734,
      "Ġ__": 1735,
      "information": 1736,
      "Â§ÂŃ-": 1737,
      "Ġdiffer": 1738,
      "ĠFalse": 1739,
      "ĠFinally": 1740,
      "Ġgreater": 1741,
      "own": 1742,
      "Ġlow": 1743,
      "ices": 1744,
      "Ġarea": 1745,
      "################################################################################################################################": 1746,
      "Ġheight": 1747,
      "Ġimplementation": 1748,
      "())": 1749,
      "cending": 1750,
      "len": 1751,
      "ote": 1752,
      "Âĸ": 1753,
      "Ġmore": 1754,
      "loat": 1755,
      "angle": 1756,
      "76": 1757,
      "Row": 1758,
      "des": 1759,
      "Ġ26": 1760,
      "Ġtri": 1761,
      "Ġ`(": 1762,
      "arget": 1763,
      "section": 1764,
      "ĠSt": 1765,
      "mage": 1766,
      "adius": 1767,
      "Ġover": 1768,
      "32": 1769,
      "Ġen": 1770,
      "Ġout": 1771,
      "Ġ!=": 1772,
      "Ġcor": 1773,
      "ork": 1774,
      "ÂĪÂĴ": 1775,
      "ĠJSON": 1776,
      "AI": 1777,
      "oin": 1778,
      "ÂĨ": 1779,
      "Â¦Â¸\",": 1780,
      "Â§Âģ;": 1781,
      "Â¦Â§-": 1782,
      "Ġsquare": 1783,
      "Ġ2019": 1784,
      "pro": 1785,
      "ustomers": 1786,
      "('": 1787,
      "37": 1788,
      "Date": 1789,
      "Ġinter": 1790,
      "ouble": 1791,
      "rix": 1792,
      "otal": 1793,
      "quest": 1794,
      "itiali": 1795,
      "Ġcontent": 1796,
      "FF": 1797,
      "ili": 1798,
      "site": 1799,
      "utput": 1800,
      "atch": 1801,
      "Ġelif": 1802,
      "Ġ2021": 1803,
      "ĠDe": 1804,
      "Ġconsole": 1805,
      "ill": 1806,
      "Ġinteger": 1807,
      "90": 1808,
      "Ch": 1809,
      "Ġ___": 1810,
      "Â¦ÂŁ:": 1811,
      "Ġ87": 1812,
      "Ġdatabase": 1813,
      "ating": 1814,
      "Ġdesi": 1815,
      "Node": 1816,
      "TP": 1817,
      "cess": 1818,
      "met": 1819,
      "Â¦Â¯]": 1820,
      "Â¦Â£)": 1821,
      "---": 1822,
      "Ġinformation": 1823,
      "Ġmin": 1824,
      "Ġmulti": 1825,
      "ÂŁÂ": 1826,
      "This": 1827,
      "ays": 1828,
      "dd": 1829,
      "oo": 1830,
      "||": 1831,
      "Â¦Â£:": 1832,
      "ongest": 1833,
      "Ġ88": 1834,
      "Ġnode": 1835,
      "Ġemail": 1836,
      "Ġgr": 1837,
      "Ġdefin": 1838,
      "erson": 1839,
      "Ġlike": 1840,
      "Ġcolumns": 1841,
      "score": 1842,
      "%)": 1843,
      "IN": 1844,
      "ror": 1845,
      "Ġ400": 1846,
      "Ġbutton": 1847,
      "Ġposition": 1848,
      "\\\\\\\\\\\\\\\\\\\\\\\\\\\\\\\\": 1849,
      "84": 1850,
      "`:": 1851,
      "bt": 1852,
      "ding": 1853,
      "ner": 1854,
      "use": 1855,
      "Â¦Â¸.": 1856,
      "Â¦Âľ)": 1857,
      "Ġabo": 1858,
      "Ġdate": 1859,
      "ĠAn": 1860,
      "lock": 1861,
      "Ġstate": 1862,
      "idth": 1863,
      "ĠOR": 1864,
      "Ġobject": 1865,
      "Re": 1866,
      "fi": 1867,
      "Â¦ÂĹ\"": 1868,
      "Ġtag": 1869,
      "Ġitem": 1870,
      "=\"#": 1871,
      "ĠNode": 1872,
      "Ġ150": 1873,
      "Ġmaximum": 1874,
      "Ġequal": 1875,
      "')": 1876,
      "AN": 1877,
      "ED": 1878,
      "ick": 1879,
      "so": 1880,
      "Â¦Âķ?": 1881,
      "Â¦Âļ)": 1882,
      "ream": 1883,
      "ory": 1884,
      "Ġbase": 1885,
      "Ġsentence": 1886,
      "hild": 1887,
      "Ġinto": 1888,
      "Ġrows": 1889,
      "$$$$$$$$": 1890,
      "500": 1891,
      "></": 1892,
      "ren": 1893,
      "Â¦Â®.": 1894,
      "Ġtra": 1895,
      "Ġ34": 1896,
      "Ġ42": 1897,
      "Ġsome": 1898,
      "Ġtop": 1899,
      "Â¦Â¿):": 1900,
      "raph": 1901,
      "ird": 1902,
      "Ġstruct": 1903,
      "erature": 1904,
      "Array": 1905,
      "]]": 1906,
      "ax": 1907,
      "go": 1908,
      "oe": 1909,
      "width": 1910,
      "sive": 1911,
      "Ġ(`": 1912,
      "Ġ300": 1913,
      "Ġpassword": 1914,
      "alary": 1915,
      "ĠAS": 1916,
      "Ġconvert": 1917,
      "Ġwithin": 1918,
      "Ġ180": 1919,
      "ocument": 1920,
      "Ġ____________": 1921,
      "Ġabove": 1922,
      "36": 1923,
      "fe": 1924,
      "fter": 1925,
      "mal": 1926,
      "ÂĤ": 1927,
      "Â¦ÂĽ?": 1928,
      "Ġ350": 1929,
      "Ġcenter": 1930,
      "Â¦Â¿),": 1931,
      "Ġlove": 1932,
      "split": 1933,
      "price": 1934,
      "\"]": 1935,
      "hone": 1936,
      "sÃł": 1937,
      "Ġhead": 1938,
      "Â¦Â¸_": 1939,
      "Â§Âĭ)": 1940,
      "Â¦Âī)": 1941,
      "Ġind": 1942,
      "ses": 1943,
      "Ġstatic": 1944,
      "ĠString": 1945,
      "ÂĪÂļ)": 1946,
      "ÂĪÂļ[": 1947,
      "ĠOutput": 1948,
      "xxxxxxxxxxxxxxxxxxxxxxxxxxxxxxxx": 1949,
      "@@@@@@@@@@@@@@@@": 1950,
      "SQL": 1951,
      "ale": 1952,
      "Â¦Âŀ,": 1953,
      "alth": 1954,
      "Ġthere": 1955,
      "verage": 1956,
      "ircle": 1957,
      "ĠWHERE": 1958,
      "Ġstatement": 1959,
      "27": 1960,
      "28": 1961,
      "bin": 1962,
      "cc": 1963,
      "ial": 1964,
      "Ġour": 1965,
      "sic": 1966,
      "Ġax": 1967,
      "ors": 1968,
      "Ġfre": 1969,
      "Ġfound": 1970,
      "Ġfloat": 1971,
      "ous": 1972,
      "Ġline": 1973,
      "qui": 1974,
      "ĠOrder": 1975,
      "Ġcommon": 1976,
      "Ġunique": 1977,
      "ency": 1978,
      "\";": 1979,
      "64": 1980,
      "cre": 1981,
      "ive": 1982,
      "ood": 1983,
      "Â¦Âī,": 1984,
      "Â¦Âĺ)": 1985,
      "Ġ38": 1986,
      "Ġcout": 1987,
      "Â§Â®)": 1988,
      "Ġno": 1989,
      "\",\"": 1990,
      "Â¦Â¨\":": 1991,
      "Ġ>=": 1992,
      "================================================================": 1993,
      "Ġempty": 1994,
      "wise": 1995,
      ")`": 1996,
      "42": 1997,
      "CO": 1998,
      "lt": 1999,
      "vid": 2000,
      "xÃł": 2001,
      "Â¦ÂŃ\"": 2002,
      "Â¦Â¥-": 2003,
      "ank": 2004,
      "Ġwindow": 2005,
      "ade": 2006,
      "Ġstyle": 2007,
      "olumn": 2008,
      "Ġhow": 2009,
      "pper": 2010,
      "ĠReturn": 2011,
      "Ġstructure": 2012,
      "():": 2013,
      "He": 2014,
      "To": 2015,
      "VID": 2016,
      "ative": 2017,
      "vas": 2018,
      "Â¦ÂŁ?": 2019,
      "Â¦ÂŁ\",": 2020,
      "Â¦Â¶\"": 2021,
      "Â¦ÂĤ)": 2022,
      "Â¦Âļ\"": 2023,
      "stance": 2024,
      "Ġ33": 2025,
      "Ġpa": 2026,
      "Ġsw": 2027,
      "ents": 2028,
      "Ġrun": 2029,
      "cept": 2030,
      "oper": 2031,
      "ash": 2032,
      "ĠHTTP": 2033,
      "angu": 2034,
      "Ġcalculates": 2035,
      "Ġprice": 2036,
      ")/": 2037,
      "61": 2038,
      "95": 2039,
      "co": 2040,
      "rd": 2041,
      "Â¦Âķ!": 2042,
      "ssible": 2043,
      "Ġ\")": 2044,
      "Ġ****": 2045,
      "org": 2046,
      "Ġba": 2047,
      "Ġwork": 2048,
      "lace": 2049,
      "itle": 2050,
      "nums": 2051,
      "Ġtrue": 2052,
      "Ġstrings": 2053,
      "cont": 2054,
      "ÂīÂ¤": 2055,
      "entiment": 2056,
      "Â¸Âİ": 2057,
      "Â¸Âı": 2058,
      "Ġnames": 2059,
      "ST": 2060,
      "line": 2061,
      "ten": 2062,
      "tra": 2063,
      "zz": 2064,
      "Â§Âĩ]": 2065,
      "ssion": 2066,
      "Ġ())": 2067,
      "Ġ31": 2068,
      "Ġdo": 2069,
      "ĠSure": 2070,
      "ĠPM": 2071,
      "Ġhigh": 2072,
      "rectrectrectrectrectrectrectrect": 2073,
      "ATE": 2074,
      "01": 2075,
      "pon": 2076,
      "password": 2077,
      "Â¦Â¿/": 2078,
      "Â¦Â®\":": 2079,
      "Â¦Â¦!": 2080,
      "Ġ375": 2081,
      "hed": 2082,
      "Ġcould": 2083,
      "Â§Â®-": 2084,
      "lick": 2085,
      "Ġdebt": 2086,
      "abc": 2087,
      "Ġalso": 2088,
      "Ġprovid": 2089,
      "Ġpossible": 2090,
      "Ġprime": 2091,
      "................................................................................................................................................................................................................................................................................................................................................................................................................................................................................................................................": 2092,
      "Ġmatrix": 2093,
      "Ġsuch": 2094,
      "ĠThen": 2095,
      "Enter": 2096,
      "OR": 2097,
      "ep": 2098,
      "root": 2099,
      "Ġ@": 2100,
      "Â¦Â°/": 2101,
      "Â¥Â¤\\": 2102,
      "Ġproper": 2103,
      "ctionary": 2104,
      "raw": 2105,
      "Ġmake": 2106,
      "ĠGP": 2107,
      "ĠCOVID": 2108,
      "Ġcontains": 2109,
      "lue": 2110,
      "Â¦Â¿++": 2111,
      "Ġ37": 2112,
      "ator": 2113,
      "Ġremove": 2114,
      "Ġrequi": 2115,
      "Ġvisi": 2116,
      "orders": 2117,
      "Ġhere": 2118,
      "ĠWi": 2119,
      "Ġsearch": 2120,
      "96": 2121,
      "DER": 2122,
      "II": 2123,
      "ather": 2124,
      "random": 2125,
      "}\")": 2126,
      "Â¦Â¯.": 2127,
      "Ġdes": 2128,
      "Ġdouble": 2129,
      "Ġinclu": 2130,
      "Ġmessage": 2131,
      "rid": 2132,
      "inter": 2133,
      "Ġ120": 2134,
      "Ġselect": 2135,
      "Â§Âĩ!\"": 2136,
      "Ġboth": 2137,
      "Ġfollowing": 2138,
      "itialize": 2139,
      "ility": 2140,
      "True": 2141,
      "bute": 2142,
      "mer": 2143,
      "Ġ[[": 2144,
      "owel": 2145,
      "ivot": 2146,
      "Ġdictionary": 2147,
      "((((((((((((((((((((((((((((((((((((((((((((((((((((((((((((((((((((((((((((((((((((((((((((((((((((((((((((((((((((((((((((((((": 2148,
      "))))))))))))))))))))))))))))))))))))))))))))))))))))))))))))))))))))))))))))))))))))))))))))))))))))))))))))))))))))))))))))))))": 2149,
      "Ġ_______________": 2150,
      "29": 2151,
      "]:": 2152,
      "emp": 2153,
      "ock": 2154,
      "vices": 2155,
      "Â¦Â¿'": 2156,
      "Â¦Â«)": 2157,
      "ssing": 2158,
      "Ġthem": 2159,
      "Ġbody": 2160,
      "Ġsy": 2161,
      "Ġwri": 2162,
      "ĠAI": 2163,
      "ĠAM": 2164,
      "Â¦Â¿?\"": 2165,
      "Ġlongest": 2166,
      "Ġonly": 2167,
      "Ġwhen": 2168,
      "Ġwhole": 2169,
      "Ġiterate": 2170,
      "Ġemploye": 2171,
      "tribute": 2172,
      "Ġgenerate": 2173,
      "Ġdifferent": 2174,
      "Ġbasic": 2175,
      "44": 2176,
      ";;": 2177,
      "My": 2178,
      "`)": 2179,
      "css": 2180,
      "gits": 2181,
      "ix": 2182,
      "ling": 2183,
      "the": 2184,
      "ves": 2185,
      "Ġenc": 2186,
      "Â¦Â¤\",": 2187,
      "Â§Âģ)": 2188,
      "Â¦Âĩ?": 2189,
      "Ġtarget": 2190,
      "reen": 2191,
      "til": 2192,
      "Ġbre": 2193,
      "ĠCon": 2194,
      "ĠCreate": 2195,
      "Ġrecur": 2196,
      "ctor": 2197,
      "Ġvect": 2198,
      "ctions": 2199,
      "vector": 2200,
      "Ġ((\"": 2201,
      "Ġcondition": 2202,
      "Ġvalid": 2203,
      "blem": 2204,
      "Ġ(((\"": 2205,
      "cription": 2206,
      "Ġmultip": 2207,
      "ET": 2208,
      "FR": 2209,
      "element": 2210,
      "ming": 2211,
      "nÃł": 2212,
      "ning": 2213,
      "zA": 2214,
      "Ġ)": 2215,
      "Â¦Â¤.": 2216,
      "Â¦Â¦:": 2217,
      "test": 2218,
      "Ġ*)": 2219,
      "Ġ`^": 2220,
      "Ġaverage": 2221,
      "Ġ65": 2222,
      "alculate": 2223,
      "Ġnext": 2224,
      "ĠAFR": 2225,
      "Â§Âĩ?\"": 2226,
      "Ġ101": 2227,
      "ments": 2228,
      "Ġresults": 2229,
      "Ġwho": 2230,
      "Ġcreates": 2231,
      "Ġuntil": 2232,
      "uplic": 2233,
      "ENCEENCEENCEENCEENCEENCEENCEENCE": 2234,
      "anguage": 2235,
      "ĠdebtÃł": 2236,
      "List": 2237,
      "ci": 2238,
      "ghe": 2239,
      "py": 2240,
      "Ġser": 2241,
      "Â¦Â°!": 2242,
      "Â¦ÂŃ-": 2243,
      "Â§Â©/": 2244,
      "let": 2245,
      "lest": 2246,
      "Ġres": 2247,
      "Ġ},": 2248,
      "\":\":": 2249,
      "Ġconst": 2250,
      "Ġmath": 2251,
      "ĠWant": 2252,
      "Ġcomple": 2253,
      "ake": 2254,
      "dict": 2255,
      "Ġattribute": 2256,
      "ĠReact": 2257,
      "Ġ-->": 2258,
      "meta": 2259,
      "ghest": 2260,
      "63": 2261,
      "69": 2262,
      "ah": 2263,
      "cord": 2264,
      "git": 2265,
      "java": 2266,
      "mod": 2267,
      "ness": 2268,
      "pre": 2269,
      "sorted": 2270,
      "uil": 2271,
      "Â¦Âķ\",": 2272,
      "ented": 2273,
      "Â§Â«/": 2274,
      "Ġcustomers": 2275,
      "Ġborder": 2276,
      "Ġblock": 2277,
      "Ġpivot": 2278,
      "Ġ[-": 2279,
      "Ġdocument": 2280,
      "Ġway": 2281,
      "Ġstack": 2282,
      "Ġher": 2283,
      "Ġlot": 2284,
      "ÂĪÂļ(": 2285,
      "Ġcanvas": 2286,
      "Ġtrans": 2287,
      "orial": 2288,
      "Ġchecks": 2289,
      "ogle": 2290,
      "23": 2291,
      "UP": 2292,
      "XX": 2293,
      "json": 2294,
      "Â¦Â¤:": 2295,
      "Â§Âĭ\",": 2296,
      "Â¦Â·-": 2297,
      "Ġ41": 2298,
      "Ġage": 2299,
      "Ġamount": 2300,
      "ĠÃ°": 2301,
      "lex": 2302,
      "ĠCh": 2303,
      "ĠCustomer": 2304,
      "Ġshould": 2305,
      "Ġparame": 2306,
      "Ġupdate": 2307,
      "ĠORDER": 2308,
      "ĠGPT": 2309,
      "53": 2310,
      "78": 2311,
      "92": 2312,
      "=-": 2313,
      "IM": 2314,
      "ND": 2315,
      "eve": 2316,
      "ice": 2317,
      "ob": 2318,
      "page": 2319,
      "part": 2320,
      "total": 2321,
      "Â¦ÂĤ:": 2322,
      "Â§Âĭ:": 2323,
      "Ġ49": 2324,
      "Â§Â¬)": 2325,
      "Ġdp": 2326,
      "ĠCell": 2327,
      "Ġ/*": 2328,
      "very": 2329,
      "quency": 2330,
      "Ġadj": 2331,
      "actorial": 2332,
      "Ġtest": 2333,
      "________________________________________________________________": 2334,
      "Ġsolution": 2335,
      "AM": 2336,
      "LL": 2337,
      "ai": 2338,
      "dle": 2339,
      "range": 2340,
      "table": 2341,
      "Â¦Â¨**": 2342,
      "Â¦Â¦)": 2343,
      "Â¦Â¶)": 2344,
      "tep": 2345,
      "side": 2346,
      "Ġ39": 2347,
      "Ġ44": 2348,
      "Ġthey": 2349,
      "Ġ03": 2350,
      "Ġwas": 2351,
      "Ġmon": 2352,
      "sed": 2353,
      "ular": 2354,
      "ily": 2355,
      "come": 2356,
      "Ġproblem": 2357,
      "Ġmean": 2358,
      "Ġsubstring": 2359,
      "Ġoper": 2360,
      "align": 2361,
      "parent": 2362,
      "Ġlinked": 2363,
      "IT": 2364,
      "YY": 2365,
      "cent": 2366,
      "cla": 2367,
      "cation": 2368,
      "iost": 2369,
      "llo": 2370,
      "nce": 2371,
      "now": 2372,
      "Ã°": 2373,
      "Â¤Âķ": 2374,
      "Â¦Â§\"": 2375,
      "error": 2376,
      "Ġ`[": 2377,
      "hes": 2378,
      "ĠÃİ": 2379,
      "Ġsample": 2380,
      "tions": 2381,
      "Ġmark": 2382,
      "Ġlong": 2383,
      "ĠNote": 2384,
      "rome": 2385,
      "Ġless": 2386,
      "ush": 2387,
      "Ġori": 2388,
      "ences": 2389,
      "Ġargs": 2390,
      "Ġformat": 2391,
      "Ġtemperature": 2392,
      "Ġpoints": 2393,
      "Ġmodif": 2394,
      "Ġappro": 2395,
      "::::::::::::::::::::::::::::::::::::::::::::::::::::::::::::::::": 2396,
      "mallest": 2397,
      "iostream": 2398,
      ",-": 2399,
      "03": 2400,
      "72": 2401,
      "DB": 2402,
      "Text": 2403,
      "ae": 2404,
      "cd": 2405,
      "ces": 2406,
      "find": 2407,
      "lat": 2408,
      "message": 2409,
      "txt": 2410,
      "ual": 2411,
      "uation": 2412,
      "Ġ####": 2413,
      "Ġorders": 2414,
      "Â¦Â¿;": 2415,
      "Â¦Âı\"": 2416,
      "Â§Â¨+": 2417,
      "Ġ55": 2418,
      "Ġav": 2419,
      "alind": 2420,
      "Ġradius": 2421,
      "eting": 2422,
      "box": 2423,
      "reads": 2424,
      "Ġintegers": 2425,
      "Ġspecified": 2426,
      "items": 2427,
      "Ġdesired": 2428,
      "Ġrequired": 2429,
      "*(": 2430,
      "Cl": 2431,
      "Fast": 2432,
      "We": 2433,
      "mes": 2434,
      "sw": 2435,
      "Â§Âĩ),": 2436,
      "Â¦Â¶:": 2437,
      "Â¦Â«\"": 2438,
      "temp": 2439,
      "any": 2440,
      "sitive": 2441,
      "Ġ`\\": 2442,
      "Ġaut": 2443,
      "Â§Â¬-": 2444,
      "lear": 2445,
      "));": 2446,
      "Ġbut": 2447,
      "Ġincre": 2448,
      "vel": 2449,
      "\"></": 2450,
      "Ġ_____": 2451,
      "ginal": 2452,
      "Ġperform": 2453,
      "--------------------------------------------------------------------------------------------------------------------------------------------------------------------------------------------------------------------------------------------------------------------------------------------------------------------------------------------------------------------------------------------------------------------------------------------------------------------------------------------------------------------------------------------------------------------------------------------------------------------------------------------------------------------------------------------------------------------------------------------------------------------------------------------------------------------------------------------------------------------------------------------------------------------------------------------------------------------------------------------------------------------------------------------------------------------------------------------------------------------------------------------------------------------------------------------------------------------------------------------------------------------------------------------------------------------------------------------------------------------------------------------------------------------------------------------------------------------------------------------------------------------------------------------------------------------------------------------------------------------------------------------------------------------------------------------------------------------------------------------------------------------------------------------------------------------------------------------------------------------------------------------------------------------------------------------------------------------------------------------------------------------------------------------------------------------------------------------------------------------------------": 2454,
      "Ġreversed": 2455,
      "Ġarguments": 2456,
      "73": 2457,
      "?\"": 2458,
      "ie": 2459,
      "ize": 2460,
      "vent": 2461,
      "Â¦Â¨/": 2462,
      "ana": 2463,
      "textarea": 2464,
      "Ġimage": 2465,
      "ĠAdd": 2466,
      "ĠCom": 2467,
      "ĠCheck": 2468,
      "ĠBe": 2469,
      "odes": 2470,
      "Ġus": 2471,
      "Â¦Â°\":": 2472,
      "ĠNO": 2473,
      "ĠExample": 2474,
      "lication": 2475,
      "lower": 2476,
      "ÂīÂĪ": 2477,
      "view": 2478,
      "prime": 2479,
      "****************************************************************************************************************************************************************************************************************************************************************": 2480,
      "Ġtriangle": 2481,
      "alindrome": 2482,
      "41": 2483,
      "56": 2484,
      "81": 2485,
      "87": 2486,
      "St": 2487,
      "UM": 2488,
      "ULL": 2489,
      "aut": 2490,
      "case": 2491,
      "Ġ________________": 2492,
      "Â¦Â¨),": 2493,
      "Â¦Â£!": 2494,
      "Â§Â¨/": 2495,
      "Â§Â¨^": 2496,
      "inal": 2497,
      "Ġcircle": 2498,
      "Ġthese": 2499,
      "Ġretri": 2500,
      "lish": 2501,
      "Ġprin": 2502,
      "Ġvowel": 2503,
      "elcome": 2504,
      "ssum": 2505,
      "ask": 2506,
      "Ġbeen": 2507,
      "respon": 2508,
      "ĠhistoricÃł": 2509,
      "Ġrecursive": 2510,
      "$`": 2511,
      "83": 2512,
      "Pr": 2513,
      "Script": 2514,
      "YZ": 2515,
      "customer": 2516,
      "war": 2517,
      "Â¦Â¸\":": 2518,
      "ens": 2519,
      "antity": 2520,
      "Ġag": 2521,
      "Ġplay": 2522,
      "ature": 2523,
      "Ġmost": 2524,
      "Ġeven": 2525,
      "Ġdefine": 2526,
      "ĠMy": 2527,
      "stru": 2528,
      "Ġmethods": 2529,
      "ĠWeb": 2530,
      "Ġnamed": 2531,
      "Char": 2532,
      "Ġfrequency": 2533,
      "Ġmonth": 2534,
      ",...": 2535,
      "John": 2536,
      "Sum": 2537,
      "UT": 2538,
      "Welcome": 2539,
      "ales": 2540,
      "lst": 2541,
      "Âĭ": 2542,
      "ÂĿ": 2543,
      "Ġlabel": 2544,
      "Â¦Â¯/": 2545,
      "Â¦Â¸),": 2546,
      "Â¦Â®\",": 2547,
      "Â¦Â·\"": 2548,
      "Â¦Â¡.": 2549,
      "Â¦Âĸ\"": 2550,
      "Ġ*/": 2551,
      "Ġ2000": 2552,
      "init": 2553,
      "Ġdays": 2554,
      "ĠAND": 2555,
      "Ġmi": 2556,
      "amily": 2557,
      "hift": 2558,
      "late": 2559,
      "Ġthree": 2560,
      "eld": 2561,
      "ounter": 2562,
      "Ġquick": 2563,
      "255": 2564,
      "board": 2565,
      "mith": 2566,
      "plan": 2567,
      "ÂĸÂĪ": 2568,
      "ĠCustomerID": 2569,
      "Ġoriginal": 2570,
      "34": 2571,
      "93": 2572,
      "Time": 2573,
      "dis": 2574,
      "ig": 2575,
      "pace": 2576,
      "},": 2577,
      "Ġenter": 2578,
      "Â¦Âķ],": 2579,
      "Â¦ÂĹ:": 2580,
      "Â¦Âĵ-": 2581,
      "Â§Â¨]": 2582,
      "Â§Â©^": 2583,
      "height": 2584,
      "Ġchild": 2585,
      "__(": 2586,
      "rea": 2587,
      "Â§Â®%": 2588,
      "Ġsk": 2589,
      "Ġsm": 2590,
      "Ġwant": 2591,
      "ĠColumn": 2592,
      "ĠCalculate": 2593,
      "Ġrequest": 2594,
      "Ġupper": 2595,
      "Â§Âĩ\".": 2596,
      "Ġgo": 2597,
      "irm": 2598,
      "ĠWh": 2599,
      "ascript": 2600,
      "Ġjava": 2601,
      "Ġclause": 2602,
      "Ġside": 2603,
      "avascript": 2604,
      "ards": 2605,
      "key": 2606,
      "ROUP": 2607,
      "Ġequation": 2608,
      "ĠABC": 2609,
      "Ġlower": 2610,
      "26": 2611,
      "98": 2612,
      "OAR": 2613,
      "]+": 2614,
      "ape": 2615,
      "ail": 2616,
      "bird": 2617,
      "cted": 2618,
      "ges": 2619,
      "join": 2620,
      "radius": 2621,
      "sentence": 2622,
      "Â¦Â¨):": 2623,
      "Â¦Â®?": 2624,
      "Â¦ÂĨ'": 2625,
      "Â¦Âĩ\",": 2626,
      "sius": 2627,
      "Â§Â§:": 2628,
      "Ġ\"#": 2629,
      "ĠIN": 2630,
      "req": 2631,
      ")):": 2632,
      "ĠCompleted": 2633,
      "Ġ/>": 2634,
      "ader": 2635,
      "Ġ{}": 2636,
      "cho": 2637,
      "oll": 2638,
      "ĠNULL": 2639,
      "ĠXYZ": 2640,
      "column": 2641,
      "Ġoperat": 2642,
      "Ġformula": 2643,
      "itial": 2644,
      "rowser": 2645,
      "Ġspecific": 2646,
      "Ġpair": 2647,
      "Ġnamespace": 2648,
      "Ġencry": 2649,
      "Ġbreak": 2650,
      "Ġvector": 2651,
      "partment": 2652,
      "OARD": 2653,
      "%;": 2654,
      ")/(": 2655,
      "54": 2656,
      "94": 2657,
      "An": 2658,
      "Fi": 2659,
      "cor": 2660,
      "mo": 2661,
      "mut": 2662,
      "rame": 2663,
      "rand": 2664,
      "ÂĬ": 2665,
      "ÂĴ": 2666,
      "Ġlay": 2667,
      "Â¦Â°**:": 2668,
      "Â¦Â¨_": 2669,
      "Â§Âģ'": 2670,
      "Â¦Âĺ-": 2671,
      "hether": 2672,
      "Ġ48": 2673,
      "Ġafter": 2674,
      "Ġco": 2675,
      "ties": 2676,
      "Ġflex": 2677,
      "Ġpython": 2678,
      "alance": 2679,
      "Ġsame": 2680,
      "Ġscript": 2681,
      "Ġsentiment": 2682,
      "url": 2683,
      "edia": 2684,
      "ordin": 2685,
      "Ġhand": 2686,
      "irth": 2687,
      "ĠNone": 2688,
      "ĠOne": 2689,
      "Ġexec": 2690,
      "ĠtraditionsÃł": 2691,
      "Ġcombin": 2692,
      "Ġwhite": 2693,
      "Ġhighest": 2694,
      "tax": 2695,
      "valid": 2696,
      "180": 2697,
      "Ġlibr": 2698,
      "param": 2699,
      "890": 2700,
      "ĠJavaScript": 2701,
      "ooter": 2702,
      "Ġdefines": 2703,
      "\\\\\\\\\\\\\\\\\\\\\\\\\\\\\\\\\\\\\\\\\\\\\\\\\\\\\\\\\\\\\\\\": 2704,
      "Ġbased": 2705,
      "google": 2706,
      "ÂĭÂĨ": 2707,
      "\"\"": 2708,
      "']": 2709,
      "300": 2710,
      "85": 2711,
      "GB": 2712,
      "MS": 2713,
      "Sh": 2714,
      "].": 2715,
      "can": 2716,
      "cat": 2717,
      "day": 2718,
      "hor": 2719,
      "pi": 2720,
      "ping": 2721,
      "pted": 2722,
      "sk": 2723,
      "sal": 2724,
      "ting": 2725,
      "tree": 2726,
      "Â¦ÂŁ.": 2727,
      "Â¤Â": 2728,
      "Â¦Â¥\"": 2729,
      "Â§Â«]": 2730,
      "Ġ46": 2731,
      "Ġcl": 2732,
      "Ġfactorial": 2733,
      "Ġpop": 2734,
      "0000": 2735,
      "Ġ['": 2736,
      "Ġwhether": 2737,
      "Ġstand": 2738,
      "ĠFirst": 2739,
      "ott": 2740,
      "ilar": 2741,
      "3333": 2742,
      "book": 2743,
      "ource": 2744,
      "Ġactive": 2745,
      "teger": 2746,
      "Ġstarting": 2747,
      "Ġcompare": 2748,
      "################################################################################################################################################################################################################################################################": 2749,
      "Ġitems": 2750,
      "$$$$$$$$$$$$$$$$": 2751,
      "%,": 2752,
      "66": 2753,
      "Element": 2754,
      "Length": 2755,
      "OIN": 2756,
      "['": 2757,
      "mat": 2758,
      "rc": 2759,
      "ro": 2760,
      "zon": 2761,
      "Â£": 2762,
      "ÂĻ": 2763,
      "Ãİ": 2764,
      "Â¦Â°):": 2765,
      "Â¦Â¯\",": 2766,
      "Â¦Â¸):": 2767,
      "Â¦Â£**:": 2768,
      "Â¦Â§)": 2769,
      "ero": 2770,
      "anana": 2771,
      "Ġtree": 2772,
      "Ġ53": 2773,
      "Ġ54": 2774,
      "Ġcred": 2775,
      "Ġfalse": 2776,
      "Ġnp": 2777,
      "arg": 2778,
      "Ġ72": 2779,
      "search": 2780,
      "Ġ/(": 2781,
      "Ġext": 2782,
      "Ġ{\"": 2783,
      "ĠPerson": 2784,
      "ĠDES": 2785,
      "ety": 2786,
      "imation": 2787,
      "ĠInitialize": 2788,
      "strong": 2789,
      "spon": 2790,
      "Ġiteration": 2791,
      "Ġmiddle": 2792,
      "username": 2793,
      "content": 2794,
      "Ġlibrary": 2795,
      "ĠDESC": 2796,
      "68": 2797,
      "AD": 2798,
      "Amount": 2799,
      "CH": 2800,
      "Cont": 2801,
      "Data": 2802,
      "DATE": 2803,
      "Th": 2804,
      "be": 2805,
      "bs": 2806,
      "ced": 2807,
      "first": 2808,
      "javascript": 2809,
      "tten": 2810,
      "Ġ\"$": 2811,
      "Ġter": 2812,
      "Ġtitle": 2813,
      "inary": 2814,
      "health": 2815,
      "Ġ52": 2816,
      "lection": 2817,
      "Ġfil": 2818,
      "Ġpi": 2819,
      "Ġdraw": 2820,
      "Ġworld": 2821,
      "ĠAd": 2822,
      "Ġred": 2823,
      "Ġrespon": 2824,
      "oud": 2825,
      "oup": 2826,
      "last": 2827,
      "eding": 2828,
      "tern": 2829,
      "ĠDI": 2830,
      "quence": 2831,
      "img": 2832,
      "ĠGROUP": 2833,
      "ĠLED": 2834,
      "Ġadded": 2835,
      "Index": 2836,
      "Ġfile": 2837,
      "submit": 2838,
      "ÂĨÂĴ": 2839,
      "@@@@@@@@@@@@@@@@@@@@@@@@@@@@@@@@": 2840,
      "Ġdescending": 2841,
      "ĠNOT": 2842,
      "Ġprinted": 2843,
      "struction": 2844,
      "Ġcredit": 2845,
      "49": 2846,
      "Ab": 2847,
      "Ex": 2848,
      "False": 2849,
      "Save": 2850,
      "cate": 2851,
      "fore": 2852,
      "family": 2853,
      "mand": 2854,
      "milar": 2855,
      "nav": 2856,
      "pen": 2857,
      "script": 2858,
      "ug": 2859,
      "uff": 2860,
      "Ġerror": 2861,
      "Â¦Â¯!": 2862,
      "Â¦Â¬:": 2863,
      "Â¦Â®):": 2864,
      "Â¦Âĩ:": 2865,
      "Â¦Âĸ]": 2866,
      "------------": 2867,
      "Ġcos": 2868,
      "rees": 2869,
      "Ġbx": 2870,
      "Ġpl": 2871,
      "Ġsalary": 2872,
      "Ġmx": 2873,
      "Ġremain": 2874,
      "Ġloans": 2875,
      "ubble": 2876,
      "2020": 2877,
      "Ġaddition": 2878,
      "ĠEx": 2879,
      "Ġseen": 2880,
      "190": 2881,
      "ĠGo": 2882,
      "Ġ250": 2883,
      "1415": 2884,
      "contain": 2885,
      "Â¦Â¿!\"": 2886,
      "ticle": 2887,
      "Ġendl": 2888,
      "Ġ___________": 2889,
      "Ġ<!--": 2890,
      "Ġwebsite": 2891,
      "Ġdivid": 2892,
      "Ġversion": 2893,
      "ĠProduct": 2894,
      "Ġrepresenting": 2895,
      "Ġcorrespon": 2896,
      "Ġdesign": 2897,
      "xxxxxxxxxxxxxxxxxxxxxxxxxxxxxxxxxxxxxxxxxxxxxxxxxxxxxxxxxxxxxxxx": 2898,
      "ĠWith": 2899,
      "79": 2900,
      "7890": 2901,
      "Con": 2902,
      "Order": 2903,
      "ati": 2904,
      "ech": 2905,
      "fy": 2906,
      "image": 2907,
      "jp": 2908,
      "mid": 2909,
      "pple": 2910,
      "ts": 2911,
      "Â¦Â°;": 2912,
      "Â¦Â¿**": 2913,
      "Ġ***": 2914,
      "Ġ43": 2915,
      "Ġassi": 2916,
      "Ġcur": 2917,
      "Â§ÂŃ%": 2918,
      "Ġbrowser": 2919,
      "Ġpresent": 2920,
      "Ġduplic": 2921,
      "Ġmove": 2922,
      "Ġreg": 2923,
      "Ġrecord": 2924,
      "sec": 2925,
      "Ġeff": 2926,
      "lack": 2927,
      "Ġhold": 2928,
      "rap": 2929,
      "ception": 2930,
      "Ġgrou": 2931,
      "ower": 2932,
      "Ġprints": 2933,
      "ĠList": 2934,
      "333": 2935,
      "ÂīÂ¥": 2936,
      "456": 2937,
      "Ġhel": 2938,
      "gestion": 2939,
      "Ġwebpage": 2940,
      "Ġsolve": 2941,
      "question": 2942,
      "Ġwritten": 2943,
      "Ġoperation": 2944,
      "learn": 2945,
      "ÂĿÂĸ": 2946,
      "ottom": 2947,
      "ĠloansÃł": 2948,
      "51": 2949,
      "57": 2950,
      "62": 2951,
      "Area": 2952,
      "Button": 2953,
      "EM": 2954,
      "]`": 2955,
      "blue": 2956,
      "cm": 2957,
      "cing": 2958,
      "cimal": 2959,
      "ex": 2960,
      "fo": 2961,
      "mov": 2962,
      "path": 2963,
      "sup": 2964,
      "top": 2965,
      "ule": 2966,
      "ude": 2967,
      "year": 2968,
      "Ġold": 2969,
      "Â¦ÂĹ_": 2970,
      "Â§ÂĢ.": 2971,
      "Â¦Âĵ?": 2972,
      "std": 2973,
      "Ġ`.": 2974,
      "hello": 2975,
      "reverse": 2976,
      "lease": 2977,
      "Ġfinal": 2978,
      "Ġnull": 2979,
      "ingbird": 2980,
      "Ġinclude": 2981,
      "Ġrela": 2982,
      "hip": 2983,
      "ĠHe": 2984,
      "lose": 2985,
      "Ġreturned": 2986,
      "ĠFind": 2987,
      "itage": 2988,
      "ĠName": 2989,
      "ets": 2990,
      "map": 2991,
      "Ġ1960": 2992,
      "Ġlook": 2993,
      "lying": 2994,
      "imes": 2995,
      "Ġascending": 2996,
      "ĠMock": 2997,
      "Ġ256": 2998,
      "Ġ((()": 2999,
      "Ġadding": 3000,
      "Ġdigits": 3001,
      "Ġiterates": 3002,
      "Ġproducts": 3003,
      "Ġfield": 3004,
      "Ġabs": 3005,
      "Ġdivine": 3006,
      "Ġdivisi": 3007,
      "position": 3008,
      "feeding": 3009,
      "================================================================================================================================": 3010,
      "ltk": 3011,
      "Ġswap": 3012,
      "Ġ*****": 3013,
      "Ġincluding": 3014,
      "Ġmodified": 3015,
      "Fastfeeding": 3016,
      "jpg": 3017,
      "ĠMockingbird": 3018,
      "05": 3019,
      "39": 3020,
      "400": 3021,
      "74": 3022,
      "86": 3023,
      "AC": 3024,
      "Com": 3025,
      "Phone": 3026,
      "ca": 3027,
      "code": 3028,
      "gy": 3029,
      "gative": 3030,
      "mend": 3031,
      "nect": 3032,
      "rg": 3033,
      "target": 3034,
      "zed": 3035,
      "Ġ?": 3036,
      "Ġheader": 3037,
      "Â¦Â¿**:": 3038,
      "Â¦Â¬!": 3039,
      "Â¦Â¤;": 3040,
      "Â¦ÂŁ**:": 3041,
      "Â§Âģ:": 3042,
      "Â¦ÂĹ.": 3043,
      "Â¦Â§:": 3044,
      "tes": 3045,
      "anÃł": 3046,
      "serif": 3047,
      "Ġ\"))": 3048,
      "Â§Â¨:": 3049,
      "heit": 3050,
      "Â§Â¯%": 3051,
      "Ġfe": 3052,
      "Ġpla": 3053,
      "Ġwww": 3054,
      "atus": 3055,
      "Ġread": 3056,
      "Ġrepe": 3057,
      "ĠBOARD": 3058,
      "ĠTest": 3059,
      "olor": 3060,
      "older": 3061,
      "ĠSub": 3062,
      "Ġlst": 3063,
      "ĠNum": 3064,
      "Ġcongestion": 3065,
      "Ġweight": 3066,
      "Â¨;": 3067,
      "Ġ&&": 3068,
      "format": 3069,
      "ĠUn": 3070,
      "Ġbook": 3071,
      "Ġadds": 3072,
      "phab": 3073,
      "Ġaccess": 3074,
      "Ġhash": 3075,
      "Ġkeep": 3076,
      "Ġabout": 3077,
      "udent": 3078,
      "EST": 3079,
      "ABLE": 3080,
      "scores": 3081,
      "Ġdatetime": 3082,
      "renheit": 3083,
      "rectrectrectrectrectrectrectrectrectrectrectrectrectrectrectrect": 3084,
      "Ġsyn": 3085,
      "ahrenheit": 3086,
      "Ġheritage": 3087,
      "IMIT": 3088,
      "ĠDIY": 3089,
      "Ġcorresponding": 3090,
      "ĠheritageÃł": 3091,
      "!\")": 3092,
      "\"],": 3093,
      "CD": 3094,
      "SE": 3095,
      "by": 3096,
      "background": 3097,
      "current": 3098,
      "doe": 3099,
      "fc": 3100,
      "kg": 3101,
      "other": 3102,
      "ook": 3103,
      "oice": 3104,
      "ron": 3105,
      "rror": 3106,
      "vate": 3107,
      "vir": 3108,
      "yp": 3109,
      "Â´": 3110,
      "Ã¥": 3111,
      "Ã¯": 3112,
      "Â¦Â°'": 3113,
      "Â¦Âı.": 3114,
      "Â¦Âľ:": 3115,
      "Â¦Â£\",": 3116,
      "sign": 3117,
      "Ġ\";": 3118,
      "util": 3119,
      "Â§Â¨%": 3120,
      "Ġcity": 3121,
      "less": 3122,
      ")))": 3123,
      "Ġ63": 3124,
      "Ġ600": 3125,
      "Ġback": 3126,
      "Ġpart": 3127,
      "alf": 3128,
      "Ġsrc": 3129,
      "Ġ81": 3130,
      "ĠAfter": 3131,
      "Ġinitial": 3132,
      "lib": 3133,
      "ric": 3134,
      "Ġlanguage": 3135,
      "ability": 3136,
      "Ġ1980": 3137,
      "mploye": 3138,
      "ici": 3139,
      "Ġallow": 3140,
      "Ġchange": 3141,
      "Ġresulting": 3142,
      "Ġsection": 3143,
      "Ġpositive": 3144,
      "ĠJOIN": 3145,
      "phone": 3146,
      "agraph": 3147,
      "Ġsets": 3148,
      "weight": 3149,
      "api": 3150,
      "Int": 3151,
      "Ġshow": 3152,
      "Ġpermut": 3153,
      "venue": 3154,
      "ready": 3155,
      "Ġletters": 3156,
      "Ġscore": 3157,
      "Ġmodel": 3158,
      "wik": 3159,
      "Ġverb": 3160,
      "Ġotherwise": 3161,
      "description": 3162,
      "ĠASC": 3163,
      "rders": 3164,
      "Ġproperty": 3165,
      "Ġemployees": 3166,
      "Ġmarker": 3167,
      "Ġapproach": 3168,
      "Ġretrieve": 3169,
      "Ġresponse": 3170,
      "About": 3171,
      "container": 3172,
      "Ġassign": 3173,
      "Ġsyntax": 3174,
      "([": 3175,
      "){": 3176,
      ":\",": 3177,
      "=[": 3178,
      "Of": 3179,
      "Sub": 3180,
      "cul": 3181,
      "even": 3182,
      "js": 3183,
      "pm": 3184,
      "pla": 3185,
      "ql": 3186,
      "xy": 3187,
      "Â§Âĩ...": 3188,
      "Â¦Â¨'": 3189,
      "Â¦Â®**:": 3190,
      "Â¦Âľ\",": 3191,
      "Ġ-=": 3192,
      "ines": 3193,
      "Ġ******": 3194,
      "Ġclick": 3195,
      "Ġfirm": 3196,
      "Ġbuil": 3197,
      "Ġbinary": 3198,
      "Ġsans": 3199,
      "Ġanimal": 3200,
      "Ġ78": 3201,
      "ouse": 3202,
      "Ġ};": 3203,
      "else": 3204,
      "elsius": 3205,
      "def": 3206,
      "ĠloanÃł": 3207,
      "ica": 3208,
      "ical": 3209,
      "Ġlists": 3210,
      "Ġalready": 3211,
      "Ġkn": 3212,
      "comp": 3213,
      "Ġclassi": 3214,
      "Ġsepar": 3215,
      "Ġ>>": 3216,
      "struct": 3217,
      "Ġcreated": 3218,
      "Ġdistance": 3219,
      "Ġtake": 3220,
      "ages": 3221,
      "olean": 3222,
      "Ġusers": 3223,
      "reating": 3224,
      "Ġprovided": 3225,
      "intercept": 3226,
      "Ġoperator": 3227,
      "ĠcreditÃł": 3228,
      "milarity": 3229,
      "14159": 3230,
      "ĠfirmÃł": 3231,
      "1000": 3232,
      "43": 3233,
      "91": 3234,
      "Ag": 3235,
      "Email": 3236,
      "New": 3237,
      "SELECT": 3238,
      "ba": 3239,
      "em": 3240,
      "ev": 3241,
      "mine": 3242,
      "ogram": 3243,
      "ru": 3244,
      "};": 3245,
      "Â©": 3246,
      "Â¯": 3247,
      "Â¦Â°),": 3248,
      "Â¦Â¿^": 3249,
      "ÂªÃĽ": 3250,
      "Â¦ÂŁ):": 3251,
      "Â¦ÂĤ/": 3252,
      "Â§ÂĢ_": 3253,
      "Â§ÂĢ\",": 3254,
      "Â§Â§%": 3255,
      "Â§Â¦/": 3256,
      "Ġcover": 3257,
      "return": 3258,
      "Ġbar": 3259,
      "Ġbold": 3260,
      "Ġphone": 3261,
      "Ġplace": 3262,
      "Ġsn": 3263,
      "Ġspe": 3264,
      "Ġnow": 3265,
      "Ġnone": 3266,
      "Ġnodes": 3267,
      "Ġnltk": 3268,
      "ari": 3269,
      "ÂĢ/": 3270,
      "ames": 3271,
      "ested": 3272,
      "chn": 3273,
      "unct": 3274,
      "ĠPK": 3275,
      "Ġgcd": 3276,
      "about": 3277,
      "ased": 3278,
      "Ġcalcula": 3279,
      "ulation": 3280,
      "Ġcharset": 3281,
      "ĠVI": 3282,
      "ĠUs": 3283,
      "http": 3284,
      "Ġ||": 3285,
      "Ġopen": 3286,
      "Ġ__________": 3287,
      "Ġparagraph": 3288,
      "Ġfix": 3289,
      "life": 3290,
      "Ġcontaining": 3291,
      "Ġsplit": 3292,
      "Ġdisplayed": 3293,
      "Ġneeds": 3294,
      "point": 3295,
      "ĠPrint": 3296,
      "Ġens": 3297,
      "ĠDef": 3298,
      "ĠAnd": 3299,
      "Ġtags": 3300,
      "Ġvisited": 3301,
      "Ġemployee": 3302,
      ";;;;": 3303,
      "Ġparameters": 3304,
      "Ġavg": 3305,
      "Ġencrypted": 3306,
      "CHAR": 3307,
      "Contact": 3308,
      "viron": 3309,
      "ĠASCII": 3310,
      ")]": 3311,
      ".\"": 3312,
      ".\")": 3313,
      "07": 3314,
      "08": 3315,
      "52": 3316,
      "Column": 3317,
      "Random": 3318,
      "ever": 3319,
      "gory": 3320,
      "grid": 3321,
      "pop": 3322,
      "rs": 3323,
      "uzz": 3324,
      "zation": 3325,
      "Â¦Âľ?": 3326,
      "Â¦ÂĤ.": 3327,
      "ension": 3328,
      "sert": 3329,
      "Â§Â§]": 3330,
      "Ġ\"-": 3331,
      "Ġtk": 3332,
      "Ġtimes": 3333,
      "Ġ56": 3334,
      "Ġca": 3335,
      "Ġcell": 3336,
      "Ġbash": 3337,
      "Ġperson": 3338,
      "Ġdwar": 3339,
      "ĠAri": 3340,
      "ings": 3341,
      "ats": 3342,
      "Ġman": 3343,
      "lis": 3344,
      "odu": 3345,
      "ĠHello": 3346,
      "lope": 3347,
      "Ġ{'": 3348,
      "Ġprom": 3349,
      "olution": 3350,
      "ĠStep": 3351,
      "terate": 3352,
      "Ġ128": 3353,
      "Ġgre": 3354,
      "Ġconsec": 3355,
      "ÂĪÂļ]": 3356,
      "2021": 3357,
      "ĠEn": 3358,
      "Ġinputs": 3359,
      "Ġprocess": 3360,
      "++;": 3361,
      "Ġprogramming": 3362,
      "Ġaccount": 3363,
      "Ġoutputs": 3364,
      "vice": 3365,
      "Ġvariables": 3366,
      "Ġfollows": 3367,
      "Ġapply": 3368,
      "());": 3369,
      "Ġdefined": 3370,
      "ENCEENCEENCEENCEENCEENCEENCEENCEENCEENCEENCEENCEENCEENCEENCEENCE": 3371,
      "Ġ____________________": 3372,
      "Product": 3373,
      "ĠWhen": 3374,
      "ĠdivineÃł": 3375,
      "unctuation": 3376,
      "vironment": 3377,
      "'t": 3378,
      "02": 3379,
      "Apple": 3380,
      "None": 3381,
      "QU": 3382,
      "Sorted": 3383,
      "UN": 3384,
      "car": 3385,
      "down": 3386,
      "flow": 3387,
      "her": 3388,
      "mary": 3389,
      "ovi": 3390,
      "}`": 3391,
      "Ġsing": 3392,
      "Â¦Â°**": 3393,
      "Â§Âĩ'": 3394,
      "Â¦Âķ:**": 3395,
      "Â¦Â®/": 3396,
      "ender": 3397,
      "Ġ(!": 3398,
      "......": 3399,
      "Ġ360": 3400,
      "Â§Â©%": 3401,
      "inue": 3402,
      "Ġ**)": 3403,
      "Â§Â«+": 3404,
      "Â§Â«^": 3405,
      "Ġassum": 3406,
      "Ġcreating": 3407,
      "Â§Â¬%": 3408,
      "Â§Âİ-": 3409,
      "Ġ68": 3410,
      "Ġbalance": 3411,
      "Ġpe": 3412,
      "als": 3413,
      "Ġsmallest": 3414,
      "argest": 3415,
      "Ġdog": 3416,
      "ĠCode": 3417,
      "Ġansw": 3418,
      "Ġremov": 3419,
      "::-": 3420,
      "Ġrank": 3421,
      "ĠSUM": 3422,
      "Â¦Â¿\".": 3423,
      "und": 3424,
      "pet": 3425,
      "ĠNa": 3426,
      "ĠON": 3427,
      "ĠOther": 3428,
      "ĠOnce": 3429,
      "Ġalt": 3430,
      "Ġalphab": 3431,
      "Ġbelow": 3432,
      "ish": 3433,
      "ĠLIMIT": 3434,
      "Ġcomput": 3435,
      "Ġlevel": 3436,
      "Ġboolean": 3437,
      "Ġaddress": 3438,
      "Ġunder": 3439,
      "Ġprivate": 3440,
      "chars": 3441,
      "utes": 3442,
      "Ġparent": 3443,
      "Ġmatch": 3444,
      "Ġyears": 3445,
      "Ġkeyword": 3446,
      "Ġ12345": 3447,
      "Ġrepresents": 3448,
      "tract": 3449,
      "))))))))))))))))))))))))))))))))))))))))))))))))))))))))))))))))))))))))))))))))))))))))))))))))))))))))))))))))))))))))))))))))))))))))))))))))))))))))))))))))))))))))))))))))))))))))))))))))))))))))))))))))))))))))))))))))))))))))))))))))))))))))))))))))": 3450,
      "Ġvowels": 3451,
      "Ġplayer": 3452,
      "Ġpairs": 3453,
      "Ġlayout": 3454,
      "Ġdivisible": 3455,
      "''": 3456,
      ".)": 3457,
      "110": 3458,
      "ION": 3459,
      "Na": 3460,
      "OST": 3461,
      "Ser": 3462,
      "TH": 3463,
      "UR": 3464,
      "Your": 3465,
      "[-": 3466,
      "back": 3467,
      "bash": 3468,
      "cal": 3469,
      "cout": 3470,
      "footer": 3471,
      "john": 3472,
      "mented": 3473,
      "port": 3474,
      "rans": 3475,
      "two": 3476,
      "}{": 3477,
      "ĠUser": 3478,
      "Â¦Âķ;": 3479,
      "Â¦Â¸'": 3480,
      "Â¦Â·)": 3481,
      "Â¦Â¡!": 3482,
      "Â¦Âĥ)": 3483,
      "utive": 3484,
      "Ġ+...": 3485,
      "Ġcar": 3486,
      "rection": 3487,
      "Ġpur": 3488,
      "Ġ[(": 3489,
      "thing": 3490,
      "ĠAl": 3491,
      "ĠArray": 3492,
      "ĠCount": 3493,
      "Ġ95": 3494,
      "Ġreac": 3495,
      "Ġeval": 3496,
      "Â¦Â¨:**": 3497,
      "odd": 3498,
      "ols": 3499,
      "ĠSh": 3500,
      "Ġnumpy": 3501,
      "ĠDate": 3502,
      "pear": 3503,
      "opping": 3504,
      "ild": 3505,
      "Ġbefore": 3506,
      "2022": 3507,
      "Ġjust": 3508,
      "Ġsin": 3509,
      "Ġorg": 3510,
      "digits": 3511,
      "values": 3512,
      "true": 3513,
      "crimin": 3514,
      "acc": 3515,
      "pective": 3516,
      "ĠKill": 3517,
      "Ġcorrect": 3518,
      "Ġtrack": 3519,
      "Ġlinear": 3520,
      "contact": 3521,
      "letters": 3522,
      "Ġrespective": 3523,
      "Ġparameter": 3524,
      "ĠComp": 3525,
      "Ġrelations": 3526,
      "Ġcalculated": 3527,
      "ĠArial": 3528,
      "Ġanswer": 3529,
      "!</": 3530,
      "-]+": 3531,
      "48": 3532,
      "800": 3533,
      "By": 3534,
      "Item": 3535,
      "Un": 3536,
      "Val": 3537,
      "World": 3538,
      "aw": 3539,
      "ches": 3540,
      "gments": 3541,
      "ite": 3542,
      "igh": 3543,
      "ms": 3544,
      "push": 3545,
      "zing": 3546,
      "ÃłÂª": 3547,
      "Â¦ÂŁ/": 3548,
      "Â¦ÂĤ\",": 3549,
      "Â¤Â¤": 3550,
      "Â¦Â¡!\"": 3551,
      "teen": 3552,
      "tect": 3553,
      "Ġ\":": 3554,
      "Ġtyp": 3555,
      "Â§Â©+": 3556,
      "Â§Â©]": 3557,
      "ins": 3558,
      "Ġ`\"": 3559,
      "Ġam": 3560,
      "Ġali": 3561,
      "Ġbit": 3562,
      "Ġshift": 3563,
      "Ġ800": 3564,
      "ĠCont": 3565,
      "Ġanother": 3566,
      "lim": 3567,
      "lies": 3568,
      "Ġ102": 3569,
      "amount": 3570,
      "uring": 3571,
      "gex": 3572,
      "Â¦Â¨\".": 3573,
      "Ġdepartment": 3574,
      "ĠST": 3575,
      "ĠSet": 3576,
      "ĠSort": 3577,
      "Ġarticle": 3578,
      "peat": 3579,
      "Ġprintf": 3580,
      "math": 3581,
      "ics": 3582,
      "Ġmak": 3583,
      "Ġmay": 3584,
      "Ġbegin": 3585,
      "\"><": 3586,
      "Ġjson": 3587,
      "Ġchart": 3588,
      "Ġsequence": 3589,
      "Ġmem": 3590,
      "active": 3591,
      "Ġvarchar": 3592,
      "Ġidenti": 3593,
      "pected": 3594,
      "inked": 3595,
      "ential": 3596,
      "ĠQu": 3597,
      "Ġletter": 3598,
      "ective": 3599,
      "Ġvertic": 3600,
      "---+": 3601,
      "Ġindices": 3602,
      "ĠOrderDate": 3603,
      "................................................................................................................................................................................................................................................................................................................................................................................................................................................................................................................................................................................................................................................................................................................................................................................................": 3604,
      "Ġvisit": 3605,
      "Ġselects": 3606,
      "Ġserver": 3607,
      "model": 3608,
      "________________________________________________________________________________________________________________________________": 3609,
      "class": 3610,
      "::::::::::::::::::::::::::::::::::::::::::::::::::::::::::::::::::::::::::::::::::::::::::::::::::::::::::::::::::::::::::::::::": 3611,
      "ordinate": 3612,
      "Ġplan": 3613,
      "ĠDefine": 3614,
      "Ġdwarf": 3615,
      "!/": 3616,
      "\"{": 3617,
      "31": 3618,
      "46": 3619,
      "77": 3620,
      "82": 3621,
      "='": 3622,
      "CA": 3623,
      "EX": 3624,
      "Fe": 3625,
      "Se": 3626,
      "Sort": 3627,
      "Type": 3628,
      "UI": 3629,
      "action": 3630,
      "bottom": 3631,
      "fit": 3632,
      "freq": 3633,
      "olog": 3634,
      "she": 3635,
      "tp": 3636,
      "upper": 3637,
      "whi": 3638,
      "Ġque": 3639,
      "Â¦ÂĬ": 3640,
      "Â¦Â¸/": 3641,
      "Â¦Â¸]": 3642,
      "Â¦ÂŁ]": 3643,
      "Â¦Â¦?": 3644,
      "enu": 3645,
      "Â¦Âĥ\"": 3646,
      "Ġ*(": 3647,
      "Â§Â¦:": 3648,
      "inner": 3649,
      "info": 3650,
      "Ġ425": 3651,
      "Â§Â¯/": 3652,
      "Ġcoin": 3653,
      "Ġcounter": 3654,
      "Â§Â®'": 3655,
      "Ġplt": 3656,
      "Ġ89": 3657,
      "ĠAmer": 3658,
      "ading": 3659,
      "location": 3660,
      "riend": 3661,
      "Â¦Â¿\":": 3662,
      "cel": 3663,
      "Ġ2018": 3664,
      "veral": 3665,
      "query": 3666,
      "Ġ1969": 3667,
      "ĠThese": 3668,
      "Ġwithout": 3669,
      "Ġbeing": 3670,
      "ĠEmploye": 3671,
      "Ġjohn": 3672,
      "Ġ______": 3673,
      "common": 3674,
      "Ġchang": 3675,
      "Ġseveral": 3676,
      "ĠGET": 3677,
      "ĠLo": 3678,
      "Ġcommand": 3679,
      "Ġdetermine": 3680,
      "Ġmeans": 3681,
      "ĠVAR": 3682,
      "335": 3683,
      "products": 3684,
      "ache": 3685,
      "Ġdataset": 3686,
      "nection": 3687,
      "Ġcalls": 3688,
      "Ġdifference": 3689,
      "ÂŁÂĴ": 3690,
      "Ġdoes": 3691,
      "((((((((((((((((((((((((((((((((((((((((((((((((((((((((((((((((((((((((((((((((((((((((((((((((((((((((((((((((((((((((((((((((((((((((((((((((((((((((((((((((((((((((((((((((((((((((((((((((((((((((((((((((((((((((((((((((((((((((((((((((((((((((((((((((": 3692,
      "employe": 3693,
      "Ġcomplex": 3694,
      "pression": 3695,
      "Ġauto": 3696,
      "Ġsmall": 3697,
      "Ġgroup": 3698,
      "hipÃł": 3699,
      "Ġsnip": 3700,
      "Ġensure": 3701,
      "ĠOtherwise": 3702,
      "criminant": 3703,
      "ĠVARCHAR": 3704,
      "?\\": 3705,
      "AS": 3706,
      "Dog": 3707,
      "Error": 3708,
      "Id": 3709,
      "Max": 3710,
      "Title": 3711,
      "]);": 3712,
      "air": 3713,
      "bon": 3714,
      "ful": 3715,
      "hull": 3716,
      "ii": 3717,
      "ience": 3718,
      "most": 3719,
      "node": 3720,
      "place": 3721,
      "sentiment": 3722,
      "smallest": 3723,
      "uted": 3724,
      "ÃĲ": 3725,
      "Ġenti": 3726,
      "Â¦Âķ_": 3727,
      "Â¦Â¬\",": 3728,
      "Â¦Â¦.": 3729,
      "Â¦Â¦\",": 3730,
      "Â¤Â°": 3731,
      "Â¦Âĵ):": 3732,
      "animal": 3733,
      "Ġcat": 3734,
      "Â§Â®/": 3735,
      "Ġ67": 3736,
      "Ġbi": 3737,
      "Ġbird": 3738,
      "Ġblue": 3739,
      "Ġpalindrome": 3740,
      "Ġsal": 3741,
      "Ġnoun": 3742,
      "ĠCR": 3743,
      "attern": 3744,
      "ĠBy": 3745,
      "Ġed": 3746,
      "Ġevery": 3747,
      "amp": 3748,
      "ĠHow": 3749,
      "load": 3750,
      "htable": 3751,
      "Ġdecimal": 3752,
      "Ġthreads": 3753,
      "ational": 3754,
      "Ġgame": 3755,
      "Ġ1776": 3756,
      "option": 3757,
      "Ġ1940": 3758,
      "Ġ1990": 3759,
      "Ġconsi": 3760,
      "Ġconver": 3761,
      "ĠOpen": 3762,
      "ubs": 3763,
      "imate": 3764,
      "ĠMath": 3765,
      "Ġ255": 3766,
      "Ġocc": 3767,
      "Ġdist": 3768,
      "ĠmyArray": 3769,
      "apple": 3770,
      "Ġdispla": 3771,
      "Ġnegative": 3772,
      "Ġpointer": 3773,
      "Ġsorting": 3774,
      "41461": 3775,
      "Ġspace": 3776,
      "Ġstores": 3777,
      "Ġappear": 3778,
      "Ġappend": 3779,
      "ĠStart": 3780,
      "Ġindic": 3781,
      "ĠConvert": 3782,
      "Ġ`^`": 3783,
      "Ġattributes": 3784,
      "Ġadjac": 3785,
      "Ġsubstrings": 3786,
      "Ġusage": 3787,
      "UTF": 3788,
      "Ġmissing": 3789,
      "Ġsklearn": 3790,
      "Ġrequests": 3791,
      "randint": 3792,
      "Ġstandard": 3793,
      "ĠPersonX": 3794,
      "Ġremaining": 3795,
      "ĠProductID": 3796,
      "cause": 3797,
      "Ġalphabet": 3798,
      "ildlife": 3799,
      "Ġsnippet": 3800,
      "Ġdisplays": 3801,
      ")=": 3802,
      "06": 3803,
      "09": 3804,
      "71": 3805,
      ":]": 3806,
      "Customer": 3807,
      "Color": 3808,
      "HT": 3809,
      "Math": 3810,
      "Wildlife": 3811,
      "You": 3812,
      "child": 3813,
      "db": 3814,
      "do": 3815,
      "fra": 3816,
      "gi": 3817,
      "gle": 3818,
      "here": 3819,
      "holder": 3820,
      "ken": 3821,
      "longest": 3822,
      "mb": 3823,
      "not": 3824,
      "post": 3825,
      "palindrome": 3826,
      "yy": 3827,
      "ÃĮ": 3828,
      "Ġ----------------": 3829,
      "Ġurl": 3830,
      "Ġodd": 3831,
      "Â§Âĩ):": 3832,
      "Â¦ÂŁ!": 3833,
      "Â§Âģ?": 3834,
      "Â§Âģ\",": 3835,
      "Â¦ÂĤ**:": 3836,
      "Â§ÂĢ**:": 3837,
      "Â¦Âī\"": 3838,
      "Â¦Âī):": 3839,
      "Â¦Âĥ-": 3840,
      "stand": 3841,
      "ĠID": 3842,
      "Â§Â¦]": 3843,
      "Ġtax": 3844,
      "inations": 3845,
      "instruction": 3846,
      "Ġ`{": 3847,
      "Ġ47": 3848,
      "Ġ58": 3849,
      "Ġ59": 3850,
      "Ġ512": 3851,
      "Â§Â¯]": 3852,
      "ons": 3853,
      "Ġari": 3854,
      "Ġcustom": 3855,
      "Â§ÂŃ/": 3856,
      "Ġph": 3857,
      "Ġ86": 3858,
      "Ġnon": 3859,
      "Ġnested": 3860,
      "Ġinitiali": 3861,
      "Ġinstance": 3862,
      "Ġinitialize": 3863,
      "Ġanimation": 3864,
      "Ġ91": 3865,
      "Ġmet": 3866,
      "Ġmust": 3867,
      "Ġmph": 3868,
      "Ġrect": 3869,
      "hird": 3870,
      "lop": 3871,
      "rice": 3872,
      "ĠPage": 3873,
      "101": 3874,
      "ĠDoe": 3875,
      "Ġgraph": 3876,
      "ĠNo": 3877,
      "ĠNext": 3878,
      "Ġ1989": 3879,
      "Ġconstruct": 3880,
      "Ġbecause": 3881,
      "ĠRO": 3882,
      "ÂĢÂĻ": 3883,
      "Ġarrays": 3884,
      "ĠGet": 3885,
      "Ġob": 3886,
      "...,": 3887,
      "Ġpost": 3888,
      "168": 3889,
      "titude": 3890,
      "Ġimpr": 3891,
      "Ġdirection": 3892,
      "Ġtechn": 3893,
      "Ġaccord": 3894,
      "Ġ|||": 3895,
      "Ġmultiple": 3896,
      "fier": 3897,
      "Ġtrain": 3898,
      "Ġproperties": 3899,
      "Ġmultiplication": 3900,
      "DBMS": 3901,
      "Ġlowercase": 3902,
      "ĠINT": 3903,
      "SaveWildlife": 3904,
      "Ġfields": 3905,
      "Submit": 3906,
      "lished": 3907,
      "Ġevalu": 3908,
      "ĠrelationshipÃł": 3909,
      "Ġqueue": 3910,
      "Ġaccording": 3911,
      ".*": 3912,
      "150": 3913,
      "175": 3914,
      "38": 3915,
      "97": 3916,
      "Al": 3917,
      "Buil": 3918,
      "EY": 3919,
      "IV": 3920,
      "NO": 3921,
      "NER": 3922,
      "OS": 3923,
      "Our": 3924,
      "SV": 3925,
      "Sp": 3926,
      "Str": 3927,
      "TABLE": 3928,
      "\\|": 3929,
      "]/": 3930,
      "``": 3931,
      "ault": 3932,
      "dx": 3933,
      "ek": 3934,
      "function": 3935,
      "face": 3936,
      "hover": 3937,
      "ile": 3938,
      "ither": 3939,
      "link": 3940,
      "multi": 3941,
      "ople": 3942,
      "pend": 3943,
      "spe": 3944,
      "smith": 3945,
      "usi": 3946,
      "ules": 3947,
      "}\"": 3948,
      "Ã¤": 3949,
      "Ġeng": 3950,
      "Ġquestion": 3951,
      "Â¦ÂŁ),": 3952,
      "Â§Âģ!": 3953,
      "Â§Âĭ.": 3954,
      "Â§ÂĢ:**": 3955,
      "Â¦Â¥)": 3956,
      "Â¦Â¡:": 3957,
      "Â¦Â¡\")": 3958,
      "Â¦Âĸ-": 3959,
      "Â¦Â«.": 3960,
      "erb": 3961,
      "tel": 3962,
      "teps": 3963,
      "Â¦Âģ\"": 3964,
      "Â¦Âģ/": 3965,
      "ĠIterate": 3966,
      "Â§ÂĮ,": 3967,
      "ĠxÃł": 3968,
      "hema": 3969,
      "Ġ450": 3970,
      "orange": 3971,
      "Â§Â®]": 3972,
      "Ġ66": 3973,
      "Ġbubble": 3974,
      "Ġpass": 3975,
      "Ġnav": 3976,
      "thme": 3977,
      "Ġwell": 3978,
      "ĠAs": 3979,
      "ĠAssum": 3980,
      "ĠCelsius": 3981,
      "Ġmade": 3982,
      "lid": 3983,
      "Ġest": 3984,
      "amb": 3985,
      "Â¦Â¨\")": 3986,
      "chase": 3987,
      "ĠSmith": 3988,
      "vest": 3989,
      "Ġ2016": 3990,
      "ĠFunction": 3991,
      "Ġ((-": 3992,
      "Ġconcat": 3993,
      "ilt": 3994,
      "Ġlocation": 3995,
      "ĠOn": 3996,
      "Ġ1865": 3997,
      "ÃĺÂªÃĽ": 3998,
      "ĠEach": 3999,
      "ĠEmail": 4000,
      "ipedia": 4001,
      "ĠMe": 4002,
      "Ġsimp": 4003,
      "111": 4004,
      "conn": 4005,
      "ptr": 4006,
      "ysql": 4007,
      "ongo": 4008,
      "Ġtables": 4009,
      "ager": 4010,
      "Ġzero": 4011,
      "Ġ456": 4012,
      "Ġlengths": 4013,
      "Ġmodule": 4014,
      "Ġcalling": 4015,
      "nextInt": 4016,
      "Ġlinks": 4017,
      "FFFF": 4018,
      "Ġminimum": 4019,
      "Ġ343": 4020,
      "Ġworks": 4021,
      "Ġvalidate": 4022,
      "Ġmultiply": 4023,
      "********************************************************************************************************************************************************************************************************************************************************************************************************************************************************************************************************************************************************************************************************************************": 4024,
      "ĠWebsite": 4025,
      "Ġlabels": 4026,
      "plane": 4027,
      "Ġcombination": 4028,
      "\\\\\\\\\\\\\\\\\\\\\\\\\\\\\\\\\\\\\\\\\\\\\\\\\\\\\\\\\\\\\\\\\\\\\\\\\\\\\\\\\\\\\\\\\\\\\\\\\\\\\\\\\\\\\\\\\\\\\\\\\\\\\\\\": 4029,
      "canner": 4030,
      "Ġclubs": 4031,
      "category": 4032,
      "Ġadditional": 4033,
      "Ġallows": 4034,
      "culator": 4035,
      "Ġanimals": 4036,
      "Agent": 4037,
      "Ġconsecutive": 4038,
      "Ġcomputer": 4039,
      "ology": 4040,
      "Ġentire": 4041,
      "Builder": 4042,
      "thmetic": 4043,
      "ĠAssuming": 4044,
      "'.": 4045,
      ")-": 4046,
      "*:": 4047,
      "/__": 4048,
      "2000": 4049,
      "58": 4050,
      "59": 4051,
      "AL": 4052,
      "Ed": 4053,
      "Mat": 4054,
      "Total": 4055,
      "[::-": 4056,
      "bi": 4057,
      "bsite": 4058,
      "birth": 4059,
      "cs": 4060,
      "cip": 4061,
      "circle": 4062,
      "click": 4063,
      "duplic": 4064,
      "ef": 4065,
      "fted": 4066,
      "ger": 4067,
      "gon": 4068,
      "ior": 4069,
      "ny": 4070,
      "sor": 4071,
      "uch": 4072,
      "zer": 4073,
      "}\\": 4074,
      "Ġ------------": 4075,
      "Â¦Âķ):": 4076,
      "Â¦Â¸**:": 4077,
      "Â¦ÂŁ_": 4078,
      "Â¦Âľ!": 4079,
      "Â¦Â¶.": 4080,
      "Â¥Âį": 4081,
      "Â¥Â¤-": 4082,
      "Â¦ÂĽ\"": 4083,
      "erge": 4084,
      "Ġ\".": 4085,
      "Ġ\");": 4086,
      "ĠIP": 4087,
      "Ġ($": 4088,
      "Ġxy": 4089,
      "Ġclo": 4090,
      "remove": 4091,
      "Â§Âİ\"": 4092,
      "lean": 4093,
      "tiv": 4094,
      "times": 4095,
      "Ġbc": 4096,
      "Ġpred": 4097,
      "Ġpower": 4098,
      "alg": 4099,
      "Ġsource": 4100,
      "Ġslope": 4101,
      "ĠAc": 4102,
      "ĠAt": 4103,
      "ĠCar": 4104,
      "Ġinf": 4105,
      "Ġ96": 4106,
      "Ġ79": 4107,
      "ater": 4108,
      "select": 4109,
      "oman": 4110,
      "Ġ#!/": 4111,
      "Ġoff": 4112,
      "hifted": 4113,
      "rite": 4114,
      "Ġsty": 4115,
      "chart": 4116,
      "Â§ÂĢ?\"": 4117,
      "ords": 4118,
      "Ġhalf": 4119,
      "Ġ1789": 4120,
      "Ġfunctions": 4121,
      "Ġ192": 4122,
      "Ġbeh": 4123,
      "Ġbest": 4124,
      "Ġexpected": 4125,
      "Ġexpression": 4126,
      "ĠREST": 4127,
      "().": 4128,
      "Ġkm": 4129,
      "Ġ140": 4130,
      "ify": 4131,
      "ĠLe": 4132,
      "Ġsimilarity": 4133,
      "divid": 4134,
      "ĠInside": 4135,
      "ĠUsing": 4136,
      "ĠUrs": 4137,
      "Ġwhat": 4138,
      "Ġbox": 4139,
      "resented": 4140,
      "ostalg": 4141,
      "999": 4142,
      "ÂģÂ": 4143,
      "Ġsubtract": 4144,
      "reeNode": 4145,
      "Invalid": 4146,
      "charact": 4147,
      "Ġiterating": 4148,
      "Ġrepresented": 4149,
      "energy": 4150,
      "refix": 4151,
      "Ġimplements": 4152,
      "Ġcompound": 4153,
      "Ġspecifies": 4154,
      "Ġneeded": 4155,
      "Ġstored": 4156,
      "ĠThere": 4157,
      "Ġ1234": 4158,
      "Ġtrip": 4159,
      "atcher": 4160,
      "ÂŁÂĳ": 4161,
      "Ġheading": 4162,
      "ĠOrderID": 4163,
      "Ġrunning": 4164,
      "Ġincludes": 4165,
      "Ġwrite": 4166,
      "Ġcomplete": 4167,
      "centage": 4168,
      "Ġavai": 4169,
      "views": 4170,
      "Ġrecursively": 4171,
      ",...,": 4172,
      "\"\"\"": 4173,
      "Â¤Â®": 4174,
      "$$$$$$$$$$$$$$$$$$$$$$$$$$$$$$$$": 4175,
      "ADD": 4176,
      "Ġredu": 4177,
      "Exception": 4178,
      "Ġnullptr": 4179,
      "Ġrepeated": 4180,
      "Â´:": 4181,
      "ĠEnd": 4182,
      "Ġcomplexity": 4183,
      "ĠHowever": 4184,
      "Ġoccurr": 4185,
      "Ġadjacent": 4186,
      "Ġconcaten": 4187,
      "/__\\|": 4188,
      "ĠUrsus": 4189,
      "\"`": 4190,
      "${": 4191,
      "';": 4192,
      "');": 4193,
      "*)": 4194,
      "88": 4195,
      "At": 4196,
      "EF": 4197,
      "FS": 4198,
      "Freq": 4199,
      "Home": 4200,
      "MM": 4201,
      "Me": 4202,
      "Message": 4203,
      "OM": 4204,
      "Qu": 4205,
      "au": 4206,
      "aÃł": 4207,
      "banana": 4208,
      "double": 4209,
      "ey": 4210,
      "equ": 4211,
      "fect": 4212,
      "gov": 4213,
      "graph": 4214,
      "iver": 4215,
      "salary": 4216,
      "sales": 4217,
      "zes": 4218,
      "}$`": 4219,
      "Âĥ": 4220,
      "Ã¦": 4221,
      "Ġri": 4222,
      "Â¦Âķ]": 4223,
      "Â¦Â¯**:": 4224,
      "Â¦Â¤),": 4225,
      "Â¦ÂŁ**": 4226,
      "Â¦Âı'": 4227,
      "Â¦Â¶?": 4228,
      "Â¦Âļ.": 4229,
      "Â¦Â¡\",": 4230,
      "Â¦Â§?": 4231,
      "Â¦Âĥ*": 4232,
      "Â¦Âĥ\",": 4233,
      "oft": 4234,
      "anel": 4235,
      "Â§Â§+": 4236,
      "Ġ=>": 4237,
      "Ġtail": 4238,
      "ond": 4239,
      "Ġact": 4240,
      "__||": 4241,
      "timi": 4242,
      "Ġfour": 4243,
      "Ġfill": 4244,
      "(((": 4245,
      "Ġball": 4246,
      "Ġpunctuation": 4247,
      "Ġstep": 4248,
      "Ġnostalg": 4249,
      "Ġdone": 4250,
      "Ġwere": 4251,
      "ume": 4252,
      "umul": 4253,
      "Ġmany": 4254,
      "Ġmovi": 4255,
      "Ġrevenue": 4256,
      "second": 4257,
      "omic": 4258,
      "entation": 4259,
      "entences": 4260,
      "Ġ${": 4261,
      "ĠTotal": 4262,
      "adra": 4263,
      "esult": 4264,
      "lask": 4265,
      "ries": 4266,
      "riter": 4267,
      "Ġstar": 4268,
      "Ġrules": 4269,
      "ĠSA": 4270,
      "Ġ2014": 4271,
      "Ġ2022": 4272,
      "ĠPer": 4273,
      "ĠDATE": 4274,
      "irplane": 4275,
      "\":\"": 4276,
      "Ġ1970": 4277,
      "Ġconn": 4278,
      "ĠOrders": 4279,
      "nglish": 4280,
      "Ġexp": 4281,
      "Ġexper": 4282,
      "group": 4283,
      "Ġ160": 4284,
      "125": 4285,
      "Ġ^(": 4286,
      "Ġsince": 4287,
      "ĠInteger": 4288,
      "163": 4289,
      "grams": 4290,
      "Ġquantity": 4291,
      "story": 4292,
      "ours": 4293,
      "Ġloops": 4294,
      "Ġsubmit": 4295,
      "Ġhex": 4296,
      "Ġhealth": 4297,
      "Ġprimes": 4298,
      "vious": 4299,
      "player": 4300,
      "Ġscr": 4301,
      "users": 4302,
      "Ġcorre": 4303,
      "program": 4304,
      "file": 4305,
      "Ġconverts": 4306,
      "ĠOrderAmount": 4307,
      "ĠReturns": 4308,
      "letter": 4309,
      "viewport": 4310,
      "asket": 4311,
      "display": 4312,
      "Ġchildren": 4313,
      "Ġhandle": 4314,
      "Ġexecuted": 4315,
      "matrix": 4316,
      "@@@@@@@@@@@@@@@@@@@@@@@@@@@@@@@@@@@@@@@@@@@@@@@@@@@@@@@@@@@@@@@@": 4317,
      "Ġrecords": 4318,
      "Ġplaced": 4319,
      "Ġpermutations": 4320,
      "Ġpeople": 4321,
      "Ġreached": 4322,
      "Ġsimply": 4323,
      "Ġpredic": 4324,
      "adratic": 4325,
      "riteria": 4326,
      "/)": 4327,
      "04": 4328,
      ">>": 4329,
      "Frame": 4330,
      "Input": 4331,
      "Lear": 4332,
      "Map": 4333,
      "No": 4334,
      "Password": 4335,
      "Set": 4336,
      "Size": 4337,
      "Temp": 4338,
      "US": 4339,
      "VG": 4340,
      "\\.": 4341,
      "cover": 4342,
      "close": 4343,
      "each": 4344,
      "fic": 4345,
      "fact": 4346,
      "gre": 4347,
      "gence": 4348,
      "ited": 4349,
      "ign": 4350,
      "izz": 4351,
      "ls": 4352,
      "nt": 4353,
      "ox": 4354,
      "object": 4355,
      "pus": 4356,
      "radi": 4357,
      "square": 4358,
      "sale": 4359,
      "uple": 4360,
      "vin": 4361,
      "wh": 4362,
      "}}": 4363,
      "Ãī": 4364,
      "Ġhis": 4365,
      "Ġ--------------------------------------------------------------------------------------------------------------------------------------------------------------------------------------------------------------------------------------------------------------------------------------------------------------------------------------------------------------------------------------------------------------------------------------------------------------------------------------------------------------------------------------------------------------------------------------------------------------------------------------------------------------------------------------------------------------------------------------------------------------------------------------------------------------------------------------------------------------------------------------------------------------------------------------------------------------------------------------------------------------------------------------------------------------------------------------------------------------------------------------------------------------------------------------------------------------------------------------------------------------------------------------------------------------------------------------------------------------------------------------------------------------------------------------------------------------------------------------------------------------------------------------------------------------------------------------------------------------------------------------------------------------------------------------------------------------------------------------------------------------------------------------------------------------------------------------------------------------------------------------------------------------------------------------------------------------------------------------------------------------------------------------------------------------------------------------------------------------------------------": 4366,
      "Â¦Â°...": 4367,
      "Â¦Â¨...": 4368,
      "Â¦Â¤!\"": 4369,
      "Â¦Âľ.": 4370,
      "Â¦Âĵ!": 4371,
      "Â¦Âĵ:": 4372,
      "services": 4373,
      "ants": 4374,
      "Â§Â§),": 4375,
      "utter": 4376,
      "Ġthird": 4377,
      "Â§Â©=": 4378,
      "***": 4379,
      "Ġamp": 4380,
      "Ġcin": 4381,
      "Ġcost": 4382,
      "Ġclean": 4383,
      "orn": 4384,
      "------------------------------------------------": 4385,
      "Ġbul": 4386,
      "Ġpath": 4387,
      "ality": 4388,
      "Ġsure": 4389,
      "Ġ84": 4390,
      "Ġnth": 4391,
      "aries": 4392,
      "Ġdri": 4393,
      "thread": 4394,
      "ĠAC": 4395,
      "ĠCa": 4396,
      "ĠCo": 4397,
      "umer": 4398,
      "uman": 4399,
      "ingÃł": 4400,
      "Ġinner": 4401,
      "Ġindivid": 4402,
      "Ġ900": 4403,
      "Ġ77": 4404,
      "Ġrest": 4405,
      "omain": 4406,
      "Ġ108": 4407,
      "ĠTrans": 4408,
      "lavery": 4409,
      "gether": 4410,
      "Ġround": 4411,
      "Ġdeg": 4412,
      "Ġdeck": 4413,
      "ĠSty": 4414,
      "Ġ'-": 4415,
      "Ġhome": 4416,
      "Ġ125": 4417,
      "ĠPre": 4418,
      "ĠPar": 4419,
      "Ġlarg": 4420,
      "ĠNew": 4421,
      "quent": 4422,
      "mazon": 4423,
      "Ġ1930": 4424,
      "device": 4425,
      "ĠRAR": 4426,
      "ĠRGB": 4427,
      "Ġtry": 4428,
      "prop": 4429,
      "commend": 4430,
      "ÂĢÂĵ": 4431,
      "Ġchoice": 4432,
      "Ġ10000": 4433,
      "Ġonline": 4434,
      "Â°,": 4435,
      "ĠGod": 4436,
      "Ġcolon": 4437,
      "ĠLet": 4438,
      "ĠLinked": 4439,
      "Ġtraditional": 4440,
      "ĠXOR": 4441,
      "Ġoc": 4442,
      "Ġmeeting": 4443,
      "ĠVII": 4444,
      "ĠVerb": 4445,
      "dio": 4446,
      "ĠUP": 4447,
      "tical": 4448,
      "Ġchecking": 4449,
      "Ġachi": 4450,
      "weather": 4451,
      "plotlib": 4452,
      "Ġhashtable": 4453,
      "ists": 4454,
      "Ġspecial": 4455,
      "ĠCOUN": 4456,
      "Ġscreen": 4457,
      "Ġcontainer": 4458,
      "1234": 4459,
      "udents": 4460,
      "Ġinterest": 4461,
      "Chart": 4462,
      "metric": 4463,
      "ÂŁÂĺ": 4464,
      "=\"#\">": 4465,
      "Ġfreq": 4466,
      "Health": 4467,
      "ToB": 4468,
      "Ġprovide": 4469,
      "Ġconditions": 4470,
      "Ġherb": 4471,
      "Ġtransform": 4472,
      "Ġadjust": 4473,
      "Ġmodify": 4474,
      "Ġperformance": 4475,
      "begin": 4476,
      "xxxxxxxxxxxxxxxxxxxxxxxxxxxxxxxxxxxxxxxxxxxxxxxxxxxxxxxxxxxxxxxxxxxxxxxxxxxxxxxxxxxxxxxxxxxxxxxxxxxxxxxxxxxxxxxxxxxxxxxxxxxxxxxx": 4477,
      "Ġeffici": 4478,
      "Ġhelp": 4479,
      "ĠNumber": 4480,
      "wikipedia": 4481,
      "Ġseparate": 4482,
      "Ġspeed": 4483,
      "Ġprompt": 4484,
      "Ġassumes": 4485,
      "limate": 4486,
      "ĠSTEM": 4487,
      "ĠAmerica": 4488,
      "ĠEmployee": 4489,
      "Ġsmaller": 4490,
      "usiness": 4491,
      "Ġbehav": 4492,
      "/__\\|/__\\|": 4493,
      "Ġbulbs": 4494,
      "Ġlarger": 4495,
      "ĠCOUNT": 4496,
      "\"}": 4497,
      ".\");": 4498,
      "120": 4499,
      "375": 4500,
      ">`,": 4501,
      "Be": 4502,
      "Cla": 4503,
      "CSS": 4504,
      "Example": 4505,
      "For": 4506,
      "IF": 4507,
      "IS": 4508,
      "MP": 4509,
      "NN": 4510,
      "Sta": 4511,
      "Table": 4512,
      "URL": 4513,
      "WHERE": 4514,
      "[:": 4515,
      "]*": 4516,
      "af": 4517,
      "bx": 4518,
      "base": 4519,
      "bsp": 4520,
      "city": 4521,
      "ded": 4522,
      "draw": 4523,
      "fla": 4524,
      "false": 4525,
      "lon": 4526,
      "menu": 4527,
      "oy": 4528,
      "ply": 4529,
      "save": 4530,
      "sses": 4531,
      "vowel": 4532,
      "vari": 4533,
      "window": 4534,
      "xyz": 4535,
      "})": 4536,
      "}[-": 4537,
      "Â»": 4538,
      "Ã¡": 4539,
      "Ġ--------": 4540,
      "ÂªÃĤ": 4541,
      "Â¦Â®),": 4542,
      "Â¦ÂŁ'": 4543,
      "Â¦Âı:": 4544,
      "Â¦Âı):": 4545,
      "Â¦Â¦]": 4546,
      "Â§Âĭ;": 4547,
      "Â¦Âļ:": 4548,
      "Â¦Â¡),": 4549,
      "Â¦Âī+": 4550,
      "offe": 4551,
      "status": 4552,
      "ane": 4553,
      "sin": 4554,
      "sity": 4555,
      "Â§Â§**:": 4556,
      "Ġ110": 4557,
      "Â§Â¨*": 4558,
      "Â§Â¨=": 4559,
      "Â§Â¨**:": 4560,
      "Ġ225": 4561,
      "Ġ`/": 4562,
      "Ġ`@": 4563,
      "Ġ`$`": 4564,
      "Â§Â«:": 4565,
      "Ġ51": 4566,
      "Ġaction": 4567,
      "Ġcate": 4568,
      "reak": 4569,
      "Ġfer": 4570,
      "Ġfur": 4571,
      "Ġfast": 4572,
      "Ġframe": 4573,
      "Ġ62": 4574,
      "Ġbirth": 4575,
      "Ġblack": 4576,
      "Ġbasket": 4577,
      "Ġpas": 4578,
      "Ġpush": 4579,
      "alan": 4580,
      "alic": 4581,
      "Ġsystem": 4582,
      "Ġsteps": 4583,
      "Ġ83": 4584,
      "ĠCustomers": 4585,
      "Ġinst": 4586,
      "Ġanal": 4587,
      "Ġ73": 4588,
      "Ġ750": 4589,
      "att": 4590,
      "Ġmol": 4591,
      "Ġmight": 4592,
      "Ġmerge": 4593,
      "sease": 4594,
      "lied": 4595,
      "light": 4596,
      "ĠBook": 4597,
      "ÂĢ(": 4598,
      "ÂĢÂľ": 4599,
      "Ġet": 4600,
      "lob": 4601,
      "ural": 4602,
      "riate": 4603,
      "Ġrate": 4604,
      "Ġdep": 4605,
      "Ġdetect": 4606,
      "rase": 4607,
      "Â§Âĩ\"...": 4608,
      "unique": 4609,
      "versal": 4610,
      "Ġgen": 4611,
      "Ġgreen": 4612,
      "Ġlargest": 4613,
      "etch": 4614,
      "ide": 4615,
      "idates": 4616,
      "quantity": 4617,
      "mages": 4618,
      "opy": 4619,
      "Ġconnect": 4620,
      "Ġ1861": 4621,
      "Ġ112": 4622,
      "2019": 4623,
      "Ġjoin": 4624,
      "grade": 4625,
      "address": 4626,
      "Ġonce": 4627,
      "heading": 4628,
      "Ġsee": 4629,
      "Ġsegments": 4630,
      "ĠGUI": 4631,
      "ĠMain": 4632,
      "ĠMongo": 4633,
      "Ġ144": 4634,
      "iful": 4635,
      "getElement": 4636,
      "ĠLast": 4637,
      "strings": 4638,
      "convert": 4639,
      "ories": 4640,
      "distance": 4641,
      "ĠUse": 4642,
      "cloud": 4643,
      "lability": 4644,
      "LED": 4645,
      "Ġatt": 4646,
      "Ġsubarray": 4647,
      "Ġsubtree": 4648,
      "ffff": 4649,
      "Ġusername": 4650,
      "Ġoptions": 4651,
      "tock": 4652,
      "uper": 4653,
      "Ġroots": 4654,
      "Ġreplace": 4655,
      "month": 4656,
      "Ġscan": 4657,
      "scale": 4658,
      "12345": 4659,
      "Ġfolder": 4660,
      "Numbers": 4661,
      "ifference": 4662,
      "Ġapprop": 4663,
      "Ġprev": 4664,
      "ABCD": 4665,
      "Ġsolid": 4666,
      "ĠDepartment": 4667,
      "Ġemails": 4668,
      "Ġswapp": 4669,
      "train": 4670,
      "................................................................................................................................................................................................................................................................................................................................................................................................................................................................................................................................................................................................................................................................": 4671,
      "Ġservices": 4672,
      "ahs": 4673,
      "ĠChart": 4674,
      "Ġmeaning": 4675,
      "Weather": 4676,
      "Ġincrease": 4677,
      "autiful": 4678,
      "Ġpopulation": 4679,
      "ĠactiveNode": 4680,
      "Ġextra": 4681,
      "Ġfilters": 4682,
      "ĠWithin": 4683,
      "================================================================================================================================================================================================================================================================": 4684,
      "PhoneNumber": 4685,
      "rectrectrectrectrectrectrectrectrectrectrectrectrectrectrectrectrectrectrectrectrectrectrectrectrectrectrectrectrectrectrectrect": 4686,
      "ruits": 4687,
      "Ġplaceholder": 4688,
      "points": 4689,
      "ĠHelloWorld": 4690,
      "johndoe": 4691,
      "Value": 4692,
      "Ġmemory": 4693,
      "frac": 4694,
      "Ġimprove": 4695,
      "tivity": 4696,
      "Ġstyling": 4697,
      "__|||": 4698,
      "Ġindividual": 4699,
      "Ġoccur": 4700,
      "ĠUPDATE": 4701,
      "offee": 4702,
      "Ġappropriate": 4703,
      "($": 4704,
      ":%": 4705,
      "AQ": 4706,
      "AV": 4707,
      "Ac": 4708,
      "API": 4709,
      "BA": 4710,
      "BQ": 4711,
      "Co": 4712,
      "Click": 4713,
      "Dis": 4714,
      "Good": 4715,
      "Next": 4716,
      "Orders": 4717,
      "Pre": 4718,
      "RU": 4719,
      "System": 4720,
      "VB": 4721,
      "Wh": 4722,
      "aa": 4723,
      "bc": 4724,
      "balance": 4725,
      "black": 4726,
      "care": 4727,
      "create": 4728,
      "check": 4729,
      "cos": 4730,
      "center": 4731,
      "cards": 4732,
      "dog": 4733,
      "eg": 4734,
      "fr": 4735,
      "free": 4736,
      "fahrenheit": 4737,
      "gress": 4738,
      "green": 4739,
      "home": 4740,
      "land": 4741,
      "med": 4742,
      "mun": 4743,
      "net": 4744,
      "nov": 4745,
      "ose": 4746,
      "oint": 4747,
      "pos": 4748,
      "run": 4749,
      "tx": 4750,
      "vg": 4751,
      "ved": 4752,
      "voice": 4753,
      "volution": 4754,
      "ward": 4755,
      "world": 4756,
      "work": 4757,
      "Âļ": 4758,
      "Ġut": 4759,
      "Ġ...": 4760,
      "Â¦Â¿#": 4761,
      "Â¦Â¿_": 4762,
      "Â¦Âķ/": 4763,
      "Â¦Âķ\":": 4764,
      "Â¦Â¯;": 4765,
      "Â¦Â¬.": 4766,
      "Â¦Â¤'": 4767,
      "Â¦Â¤/": 4768,
      "Â¦Â¸!": 4769,
      "Â¦Â¸?": 4770,
      "Â¦Â¸**": 4771,
      "Â¦Âı/": 4772,
      "Â¥Âģ": 4773,
      "Â§ÂĢ!": 4774,
      "Â¦Âī-": 4775,
      "ert": 4776,
      "ene": 4777,
      "tex": 4778,
      "student": 4779,
      "endl": 4780,
      "sis": 4781,
      "sit": 4782,
      "Ġ(#": 4783,
      "Ġtuple": 4784,
      "Ġ330": 4785,
      "Ġ**\"": 4786,
      "Ġ***(": 4787,
      "Ġ4000": 4788,
      "Ġ+----------------": 4789,
      "Ġai": 4790,
      "Ġcurr": 4791,
      "Ġcards": 4792,
      "reset": 4793,
      "Â§Â¬]": 4794,
      "orus": 4795,
      "leep": 4796,
      "Ġfull": 4797,
      "Ġfriend": 4798,
      "Ġ61": 4799,
      "Ġ625": 4800,
      "Ġbound": 4801,
      "Ġblog": 4802,
      "Ġpot": 4803,
      "alph": 4804,
      "Ġda": 4805,
      "Ġdown": 4806,
      "Ġ01": 4807,
      "Ġ011": 4808,
      "ĠAmazon": 4809,
      "Ġinside": 4810,
      "Ġangle": 4811,
      "Ġ98": 4812,
      "Ġmysql": 4813,
      "ĠBM": 4814,
      "ama": 4815,
      "ammal": 4816,
      "ĠTO": 4817,
      "ĠTreeNode": 4818,
      "high": 4819,
      "highest": 4820,
      "aduation": 4821,
      "rib": 4822,
      "Ġprof": 4823,
      "Ġprodu": 4824,
      "Ġdeve": 4825,
      "Ġdecla": 4826,
      "Ġvi": 4827,
      "chain": 4828,
      "olute": 4829,
      "ĠSp": 4830,
      "ĠSw": 4831,
      "ĠScanner": 4832,
      "ĠStock": 4833,
      "Ġhori": 4834,
      "Ġhover": 4835,
      "Â¥Â¤\")": 4836,
      "Â§Âĩ\")": 4837,
      "Â§Âĩ\":": 4838,
      "unc": 4839,
      "unch": 4840,
      "els": 4841,
      "ĠDB": 4842,
      "Ġ(()": 4843,
      "................................................................................................": 4844,
      "Ġlang": 4845,
      "ablished": 4846,
      "ĠNP": 4847,
      "ĠNW": 4848,
      "ĠNor": 4849,
      "ives": 4850,
      "Ġ1500": 4851,
      "Ġ1920": 4852,
      "dev": 4853,
      "Ġdefault": 4854,
      "ĠOur": 4855,
      "Ġ1800": 4856,
      "Ġitself": 4857,
      "lyÃł": 4858,
      "ĠRandom": 4859,
      "imension": 4860,
      "ĠEnglish": 4861,
      "ÂĢÂĿ": 4862,
      "Ġbyte": 4863,
      "1984": 4864,
      "ĠGr": 4865,
      "ĠMay": 4866,
      "Ġ130": 4867,
      "ĠLi": 4868,
      "Ġprogress": 4869,
      "Ġcompar": 4870,
      "Ġsides": 4871,
      "ĠXXX": 4872,
      "ĠJohn": 4873,
      "Ġmeters": 4874,
      "rectory": 4875,
      "Ġ2001": 4876,
      "digit": 4877,
      "Â¦Â¿:**": 4878,
      "Ġquadratic": 4879,
      "ĠUS": 4880,
      "keys": 4881,
      "Âī^": 4882,
      "ourse": 4883,
      "Â§Â¦%)": 4884,
      "Ġlight": 4885,
      "!\");": 4886,
      "website": 4887,
      "Ġfinding": 4888,
      "Ġoppon": 4889,
      "Ġoptimi": 4890,
      "Ġ404": 4891,
      "earch": 4892,
      "Integer": 4893,
      "arrays": 4894,
      "Ġdiscriminant": 4895,
      "viation": 4896,
      "ocial": 4897,
      "Ġvariety": 4898,
      "Ġcolors": 4899,
      "istogram": 4900,
      "show": 4901,
      "Ġimplemented": 4902,
      "Ġcontinue": 4903,
      "ĠForm": 4904,
      "Ġspent": 4905,
      "Ġsupp": 4906,
      "Ġ++,": 4907,
      "Ġapplication": 4908,
      "Ġprevious": 4909,
      "Ġgenerates": 4910,
      "Ġgenerated": 4911,
      "Ġrepresentation": 4912,
      "Ġenumer": 4913,
      "Ġouter": 4914,
      "Ġinteractive": 4915,
      "dden": 4916,
      "btn": 4917,
      "ĠStringBuilder": 4918,
      "Ġstyles": 4919,
      "Header": 4920,
      "coordinate": 4921,
      "Ġworkout": 4922,
      "Ġdescription": 4923,
      "modal": 4924,
      "Ġapprox": 4925,
      "Fasting": 4926,
      "Ġauthor": 4927,
      "Ġincrement": 4928,
      "ĠBelow": 4929,
      "Ġagain": 4930,
      "atures": 4931,
      "planation": 4932,
      "Ġsmtp": 4933,
      "Ġuppercase": 4934,
      "chools": 4935,
      "ordinates": 4936,
      "Threads": 4937,
      "Ġfilter": 4938,
      "atist": 4939,
      "Ġduplicates": 4940,
      "Ġregular": 4941,
      "ĠSubject": 4942,
      "wiki": 4943,
      "Ġbuild": 4944,
      ";;;;;;;;": 4945,
      "Ġgreeting": 4946,
      "Ġsingle": 4947,
      "Ġunderstand": 4948,
      "11011": 4949,
      "Services": 4950,
      "accinations": 4951,
      "Ġrespectively": 4952,
      "ById": 4953,
      "Ġmakes": 4954,
      "sheet": 4955,
      "Ġconsider": 4956,
      "Ġindicating": 4957,
      "Ġarithmetic": 4958,
      "telli": 4959,
      "characters": 4960,
      "Ġactual": 4961,
      "Stay": 4962,
      "vowels": 4963,
      "Ġfurther": 4964,
      "getElementById": 4965,
      "ĠDepartmentID": 4966,
      "Ġhorizon": 4967,
      "Ġopponent": 4968,
      "\"))": 4969,
      "\"),": 4970,
      "(),": 4971,
      ")',": 4972,
      "*/": 4973,
      ",\"": 4974,
      "600": 4975,
      "=(": 4976,
      "AX": 4977,
      "Ax": 4978,
      "App": 4979,
      "Case": 4980,
      "Climate": 4981,
      "De": 4982,
      "EI": 4983,
      "EATE": 4984,
      "IZ": 4985,
      "LAN": 4986,
      "Man": 4987,
      "OH": 4988,
      "Output": 4989,
      "OUR": 4990,
      "Please": 4991,
      "POST": 4992,
      "Salary": 4993,
      "Words": 4994,
      "`).": 4995,
      "aad": 4996,
      "bit": 4997,
      "cpp": 4998,
      "cost": 4999,
      "customers": 5000,
      "calculate": 5001,
      "dÃĻ": 5002,
      "ele": 5003,
      "from": 5004,
      "float": 5005,
      "firm": 5006,
      "gment": 5007,
      "gmail": 5008,
      "how": 5009,
      "host": 5010,
      "io": 5011,
      "jaad": 5012,
      "mber": 5013,
      "oom": 5014,
      "pse": 5015,
      "png": 5016,
      "pack": 5017,
      "}.": 5018,
      "Â³": 5019,
      "ÂĲ": 5020,
      "ÂŃ": 5021,
      "Ã¨": 5022,
      "ÃĦ": 5023,
      "Ãĳ": 5024,
      "Ġer": 5025,
      "Ġ);": 5026,
      "Â¦Â¿...": 5027,
      "Â¦Âķ**:": 5028,
      "Â¦Â¸;": 5029,
      "Â¦ÂŁ;": 5030,
      "Â¥Â¤)": 5031,
      "Â¥Â¤*": 5032,
      "Â§Âĭ!\"": 5033,
      "Â¦Â·.": 5034,
      "Â¦Â£/": 5035,
      "Â¦Âĩ/": 5036,
      "tein": 5037,
      "stdio": 5038,
      "endar": 5039,
      "endance": 5040,
      "Ġ\"+": 5041,
      "Â§Â¨\"": 5042,
      "Ġ216": 5043,
      "Ġtrees": 5044,
      "Ġtbsp": 5045,
      "Ġ3000": 5046,
      "Â§Â©*": 5047,
      "inite": 5048,
      "Ġ`,": 5049,
      "Ġ`_": 5050,
      "Ġ5000": 5051,
      "Ġau": 5052,
      "Ġcap": 5053,
      "reed": 5054,
      "repeat": 5055,
      "Â§Â®^": 5056,
      "Â§ÂŃ',": 5057,
      "Ġfall": 5058,
      "Ġfooter": 5059,
      "Ġbits": 5060,
      "Ġbatch": 5061,
      "Ġpast": 5062,
      "Ġpattern": 5063,
      "alk": 5064,
      "Ġsales": 5065,
      "Ġshifted": 5066,
      "Ġsuper": 5067,
      "........................": 5068,
      "Ġdy": 5069,
      "threads": 5070,
      "Ġways": 5071,
      "ĠAD": 5072,
      "ĠAmend": 5073,
      "ĠCy": 5074,
      "ĠCal": 5075,
      "ĠCity": 5076,
      "Ġ911": 5077,
      "Ġ76": 5078,
      "atural": 5079,
      "Ġrel": 5080,
      "Ġrefer": 5081,
      "Ġregex": 5082,
      "Ġ105": 5083,
      "ĠBBQ": 5084,
      "Ġeither": 5085,
      "ams": 5086,
      "ĠTable": 5087,
      "hic": 5088,
      "ĠHel": 5089,
      "lapse": 5090,
      "ril": 5091,
      "rit": 5092,
      "Ġstop": 5093,
      "Ġstudent": 5094,
      "Ġstudents": 5095,
      "Ġthread": 5096,
      "edu": 5097,
      "ĠSe": 5098,
      "Â¦Â¿\")": 5099,
      "Ġhull": 5100,
      "------------------------------------------------------------------------------------------------------------------------------------------------------------------------------------------------": 5101,
      "ellow": 5102,
      "ĠFlask": 5103,
      "itness": 5104,
      "ĠPhone": 5105,
      "ĠPrice": 5106,
      "ĠDog": 5107,
      "Ġgrid": 5108,
      "Ġlines": 5109,
      "ĠNoun": 5110,
      "ĠNEX": 5111,
      "ivative": 5112,
      "Ġ1775": 5113,
      "make": 5114,
      "open": 5115,
      "Ġcontr": 5116,
      "Ġconnection": 5117,
      "ĠThey": 5118,
      "Ġ111": 5119,
      "2015": 5120,
      "2018": 5121,
      "Ġcand": 5122,
      "Ġexit": 5123,
      "ĠRo": 5124,
      "()`,": 5125,
      "coming": 5126,
      "Ġchoo": 5127,
      "ĠGD": 5128,
      "Â¦Â°:**": 5129,
      "inder": 5130,
      "ife": 5131,
      "iff": 5132,
      "\").": 5133,
      "Ġareas": 5134,
      "ĠLB": 5135,
      "ĠLanguage": 5136,
      "ĠtraditionÃł": 5137,
      "Ġleast": 5138,
      "ulate": 5139,
      "ĠVan": 5140,
      "ĠBCE": 5141,
      "166": 5142,
      "++:": 5143,
      "stration": 5144,
      "strength": 5145,
      "tail": 5146,
      "clar": 5147,
      "ENT": 5148,
      "trans": 5149,
      "resses": 5150,
      "Ġunsal": 5151,
      "acy": 5152,
      "aces": 5153,
      "php": 5154,
      "Ġlit": 5155,
      "Ġlife": 5156,
      "ayes": 5157,
      "Ġoption": 5158,
      "Ġ4096": 5159,
      "Ġadverbial": 5160,
      "Ġ[\"$": 5161,
      "appy": 5162,
      "ĠKEY": 5163,
      "Ġ365": 5164,
      "Ġpercentage": 5165,
      "Ġperfect": 5166,
      "enerate": 5167,
      "Ġupd": 5168,
      "NumThreads": 5169,
      "Ġcontin": 5170,
      "Ġlogical": 5171,
      "Ġcompany": 5172,
      "with": 5173,
      "descending": 5174,
      "Reader": 5175,
      "Ġtraversal": 5176,
      "ocuments": 5177,
      "Ġpassing": 5178,
      "abcdef": 5179,
      "Ġproviding": 5180,
      "Ġsymb": 5181,
      "Ġrecursion": 5182,
      "Ġmultiplying": 5183,
      "Ġperforms": 5184,
      "Ġagar": 5185,
      "Ġquicksort": 5186,
      "coration": 5187,
      "Ġexecute": 5188,
      "Shape": 5189,
      "Â¤ÂĽ": 5190,
      "333333": 5191,
      "ĠactiveLength": 5192,
      "argv": 5193,
      "Ġterm": 5194,
      "ĠExplanation": 5195,
      "Ġdivide": 5196,
      "Ġcursor": 5197,
      "Ġduplicate": 5198,
      "Ġhelper": 5199,
      "reversed": 5200,
      "Ġscores": 5201,
      "Ġclassifier": 5202,
      "ENCEENCEENCEENCEENCEENCEENCEENCEENCEENCEENCEENCEENCEENCEENCEENCEENCEENCEENCEENCEENCEENCEENCEENCEENCEENCEENCEENCEENCEENCEENCEENCE": 5203,
      "Ġremoving": 5204,
      "Ġpurchase": 5205,
      "ĠCompare": 5206,
      "Ġalign": 5207,
      "while": 5208,
      "Ġcoins": 5209,
      "Ġchanges": 5210,
      "employees": 5211,
      "Ġphrase": 5212,
      "Ġengine": 5213,
      "Ġnavig": 5214,
      "duplicates": 5215,
      "ĠIPv": 5216,
      "Ġexperience": 5217,
      "Ġcorrected": 5218,
      "programming": 5219,
      "Ġpredicate": 5220,
      "Learn": 5221,
      "Ġdegrees": 5222,
      "Ġbehavior": 5223,
      "Ġferment": 5224,
      "ĠMongoDB": 5225,
      "................................................................................................................................................................................................................................................................................................................................................................................................................................................................................................................................................................................................................................................................................................................................................................": 5226,
      "Ġpotential": 5227,
      "ĠStockID": 5228,
      "Ġenumerate": 5229,
      "atistics": 5230,
      "telligence": 5231,
      "Ġhorizontal": 5232,
      "ĠAmendment": 5233,
      "Ġunsalted": 5234,
      "'],": 5235,
      ")\\": 5236,
      ")`.": 5237,
      "*`": 5238,
      "+...": 5239,
      ".\"\"\"": 5240,
      "/%": 5241,
      "220": 5242,
      "212": 5243,
      "<=": 5244,
      ">,": 5245,
      "Ad": 5246,
      "ACT": 5247,
      "BER": 5248,
      "Book": 5249,
      "CR": 5250,
      "Can": 5251,
      "Current": 5252,
      "Child": 5253,
      "Day": 5254,
      "Documents": 5255,
      "EG": 5256,
      "First": 5257,
      "Flying": 5258,
      "GM": 5259,
      "Histogram": 5260,
      "It": 5261,
      "Le": 5262,
      "Line": 5263,
      "OP": 5264,
      "PU": 5265,
      "Pl": 5266,
      "Py": 5267,
      "TE": 5268,
      "Two": 5269,
      "VER": 5270,
      "_`": 5271,
      "`),": 5272,
      "aps": 5273,
      "da": 5274,
      "fre": 5275,
      "gs": 5276,
      "ging": 5277,
      "gpt": 5278,
      "greater": 5279,
      "ik": 5280,
      "ition": 5281,
      "ise": 5282,
      "iod": 5283,
      "lines": 5284,
      "pol": 5285,
      "rate": 5286,
      "ros": 5287,
      "roll": 5288,
      "source": 5289,
      "uc": 5290,
      "ually": 5291,
      "vant": 5292,
      "ving": 5293,
      "vents": 5294,
      "win": 5295,
      "ways": 5296,
      "wards": 5297,
      "xing": 5298,
      "Â®": 5299,
      "Âİ": 5300,
      "Ġ],": 5301,
      "Ġhttp": 5302,
      "Â¦Â°],": 5303,
      "Â§Âĩ/": 5304,
      "Â¦Â¨*:": 5305,
      "Â¦Â®'": 5306,
      "Â¦Â®;": 5307,
      "Â¦Âľ/": 5308,
      "Â¥Â¤]": 5309,
      "Â¦Â·:": 5310,
      "Â¦ÂŃ:": 5311,
      "Â§ÂĢ/": 5312,
      "Â¦Âļ\",": 5313,
      "Â¦Â£]": 5314,
      "Â¦Â£),": 5315,
      "Â¦Â¥\",": 5316,
      "Â¦Âĩ]": 5317,
      "Â¦Âĩ):": 5318,
      "Â¦Âĩ),": 5319,
      "Â¦Â§.": 5320,
      "Â¦Âĵ\",": 5321,
      "ered": 5322,
      "erivative": 5323,
      "ename": 5324,
      "environment": 5325,
      "ani": 5326,
      "similarity": 5327,
      "Ġ-<": 5328,
      "Â¦Âģ!": 5329,
      "Â§Â¨),": 5330,
      "Ġ('": 5331,
      "Ġ([": 5332,
      "Â§Â¦;": 5333,
      "Â§Â¦^": 5334,
      "Ġ399": 5335,
      "Â§Â©:": 5336,
      "Â§Â©),": 5337,
      "Ġ**-": 5338,
      "Ġ`)": 5339,
      "Ġ57": 5340,
      "Ġ+,": 5341,
      "Ġass": 5342,
      "Ġamet": 5343,
      "Ġii": 5344,
      "Â§Âİ)": 5345,
      "Â§Â®+": 5346,
      "tition": 5347,
      "Â§ÂŃ]": 5348,
      "Ġfact": 5349,
      "Ġbrand": 5350,
      "Ġbanana": 5351,
      "Ġbottom": 5352,
      "Ġpd": 5353,
      "Ġpix": 5354,
      "Ġprefix": 5355,
      "Ġsend": 5356,
      "001": 5357,
      "arc": 5358,
      "article": 5359,
      "Ġdot": 5360,
      "Ġderivative": 5361,
      "Ġwa": 5362,
      "ĠAVG": 5363,
      "ĠCl": 5364,
      "ĠCPU": 5365,
      "ump": 5366,
      "Ġinher": 5367,
      "Ġmov": 5368,
      "Ġrecommend": 5369,
      "livery": 5370,
      "ently": 5371,
      "escription": 5372,
      "lable": 5373,
      "rip": 5374,
      "Ġrg": 5375,
      "Ġrule": 5376,
      "edges": 5377,
      "olume": 5378,
      "ĠSc": 5379,
      "ĠSer": 5380,
      "ĠSalary": 5381,
      "Ġ'''": 5382,
      "Ġhours": 5383,
      "Ġ}}": 5384,
      "Ġ});": 5385,
      "xxx": 5386,
      "Ġ1200": 5387,
      "Ġ2013": 5388,
      "ĠFl": 5389,
      "ĠFr": 5390,
      "ĠFAQ": 5391,
      "ÂĪÂĻ---": 5392,
      "itude": 5393,
      "ĠPOST": 5394,
      "108": 5395,
      "Ġ240": 5396,
      "ĠDN": 5397,
      "ĠData": 5398,
      "Ġgive": 5399,
      "Ġlangu": 5400,
      "idae": 5401,
      "Ġ1783": 5402,
      "Ġ153": 5403,
      "otate": 5404,
      "decimal": 5405,
      "decoration": 5406,
      "ÂĪÂļ((": 5407,
      "ĠOut": 5408,
      "ĠWord": 5409,
      "ublish": 5410,
      "Ġalong": 5411,
      "Ġexception": 5412,
      "ĠRDBMS": 5413,
      "imple": 5414,
      "ĠEX": 5415,
      "(){": 5416,
      "Ġknow": 5417,
      "ands": 5418,
      "Ġweather": 5419,
      "ustain": 5420,
      "ĠMark": 5421,
      "ĠMAX": 5422,
      "ift": 5423,
      "pping": 5424,
      "Ġsign": 5425,
      "Ġleap": 5426,
      "aves": 5427,
      "ared": 5428,
      "orizer": 5429,
      "means": 5430,
      "1865": 5431,
      "botic": 5432,
      "tica": 5433,
      "resh": 5434,
      "Ġdigit": 5435,
      "Ġimportant": 5436,
      "ĠnewNode": 5437,
      "agon": 5438,
      "gorize": 5439,
      "arry": 5440,
      "Ġadverbs": 5441,
      "Ġdiscount": 5442,
      "Ġ\"\";": 5443,
      "oci": 5444,
      "ocery": 5445,
      "Ġcounts": 5446,
      "Ġcountry": 5447,
      "Ġalgorithms": 5448,
      "ART": 5449,
      "ĠstronglyÃł": 5450,
      "stylesheet": 5451,
      "Ġpointers": 5452,
      "ĠQue": 5453,
      "++){": 5454,
      "Ġabc": 5455,
      "674": 5456,
      "Ġspaces": 5457,
      "Ġ---": 5458,
      "ecti": 5459,
      "substr": 5460,
      "ditionally": 5461,
      "Ġpredict": 5462,
      "Ġtimest": 5463,
      "ilities": 5464,
      "lockwise": 5465,
      "Ġsomething": 5466,
      "ĠHTTPS": 5467,
      "Ġrequire": 5468,
      "Ġdescri": 5469,
      "merce": 5470,
      "Ġ`^[": 5471,
      "Ġ`^\\": 5472,
      "Ġwhose": 5473,
      "ĠChorus": 5474,
      "Ġupdated": 5475,
      "Ġoperations": 5476,
      "YYYY": 5477,
      "nowfla": 5478,
      "Textbox": 5479,
      "Web": 5480,
      "temperature": 5481,
      "UMBER": 5482,
      "Ġmonths": 5483,
      "Â¦Âĸ\"\":": 5484,
      "Ġcombinations": 5485,
      "Ġcompares": 5486,
      "Ġextend": 5487,
      "ĠAdditionally": 5488,
      "uffle": 5489,
      "ĠGogh": 5490,
      "OrderDate": 5491,
      "ĠbrowserName": 5492,
      "Ġabsolute": 5493,
      "rgba": 5494,
      "Ġbuilt": 5495,
      "ĠboldÃł": 5496,
      "Ġspeech": 5497,
      "Ġfixed": 5498,
      "RandomNumber": 5499,
      "QUES": 5500,
      "undred": 5501,
      "Ġbeginning": 5502,
      "Ġvertices": 5503,
      "::::::::::::::::::::::::::::::::::::::::::::::::::::::::::::::::::::::::::::::::::::::::::::::::::::::::::::::::::::::::::::::::::::::::::::::::::::::::::::::::::::::::::::::::::::::::::::::::::::::::::::::::::::::::::::::::::::::::::::::::::::::::::::::::": 5504,
      "celsius": 5505,
      "Ġconverted": 5506,
      "Ġcustomize": 5507,
      "speech": 5508,
      "vestment": 5509,
      "csv": 5510,
      "Ġreduce": 5511,
      "Ġachieve": 5512,
      "ĠEmployeeID": 5513,
      "Class": 5514,
      "__|||__|||": 5515,
      "novation": 5516,
      "alpha": 5517,
      "ribution": 5518,
      "Ġapproximate": 5519,
      "claration": 5520,
      "Ġlanguages": 5521,
      "nowflake": 5522,
      "#$": 5523,
      "'m": 5524,
      "'re": 5525,
      "(#": 5526,
      "-(": 5527,
      ";\">": 5528,
      ">\"": 5529,
      ">&": 5530,
      "?=": 5531,
      "AP": 5532,
      "Ar": 5533,
      "BC": 5534,
      "Bad": 5535,
      "Bird": 5536,
      "Buzz": 5537,
      "Cal": 5538,
      "Cas": 5539,
      "Count": 5540,
      "City": 5541,
      "Criteria": 5542,
      "Down": 5543,
      "FÃł": 5544,
      "Function": 5545,
      "Green": 5546,
      "IP": 5547,
      "Java": 5548,
      "JSON": 5549,
      "MD": 5550,
      "Mod": 5551,
      "Make": 5552,
      "On": 5553,
      "Object": 5554,
      "OLED": 5555,
      "PA": 5556,
      "PR": 5557,
      "Po": 5558,
      "RED": 5559,
      "Soup": 5560,
      "Tra": 5561,
      "Tree": 5562,
      "Window": 5563,
      "]-": 5564,
      "]{": 5565,
      "]))": 5566,
      "]])": 5567,
      "aq": 5568,
      "aur": 5569,
      "actions": 5570,
      "ban": 5571,
      "bes": 5572,
      "bine": 5573,
      "blog": 5574,
      "cand": 5575,
      "cus": 5576,
      "cmath": 5577,
      "du": 5578,
      "emy": 5579,
      "eves": 5580,
      "fort": 5581,
      "font": 5582,
      "ftime": 5583,
      "has": 5584,
      "ium": 5585,
      "iou": 5586,
      "iss": 5587,
      "jour": 5588,
      "largest": 5589,
      "mg": 5590,
      "man": 5591,
      "mic": 5592,
      "media": 5593,
      "mstrong": 5594,
      "na": 5595,
      "punctuation": 5596,
      "rop": 5597,
      "ste": 5598,
      "sql": 5599,
      "uy": 5600,
      "ware": 5601,
      "yt": 5602,
      "zip": 5603,
      "}$": 5604,
      "Âµ": 5605,
      "Âĺ": 5606,
      "ÂĽ": 5607,
      "Ġent": 5608,
      "Ġlab": 5609,
      "Â¦Âķ**": 5610,
      "Â¦Â¨],": 5611,
      "Â¦Â¯\":": 5612,
      "Â¦Â¤]": 5613,
      "Â§Âģ.": 5614,
      "Â¦ÂĹ/": 5615,
      "Â¦Âľ),": 5616,
      "Â§ÂĢ]": 5617,
      "Â¦Â£;": 5618,
      "Â¦Âĸ:": 5619,
      "Â¦Âĵ;": 5620,
      "err": 5621,
      "ense": 5622,
      "Â¦Âĥ****": 5623,
      "stack": 5624,
      "Username": 5625,
      "------": 5626,
      "Â¦Âģ)": 5627,
      "Ġ\"%": 5628,
      "Ġ\"<": 5629,
      "uture": 5630,
      "Â§Â¦):": 5631,
      "Ġ220": 5632,
      "Ġtilt": 5633,
      "Ġ`+": 5634,
      "Ġ`-": 5635,
      "Â§Â«=": 5636,
      "Ġairplane": 5637,
      "Ġcent": 5638,
      "Ġcatch": 5639,
      "Ġcelsius": 5640,
      "Ġcache": 5641,
      "###": 5642,
      "Ġthee": 5643,
      "Â§Â¬=": 5644,
      "Â§Â®),": 5645,
      "lete": 5646,
      "lections": 5647,
      ")),": 5648,
      "tific": 5649,
      "Ġfla": 5650,
      "Ġfra": 5651,
      "Ġfree": 5652,
      "Ġfetch": 5653,
      "ĠbÃł": 5654,
      "Ġbank": 5655,
      "Ġplat": 5656,
      "Ġsb": 5657,
      "Ġsq": 5658,
      "Ġsentences": 5659,
      "Ġsleep": 5660,
      "Ġnor": 5661,
      "Ġdimension": 5662,
      "Ġwin": 5663,
      "ĠAr": 5664,
      "ĠAut": 5665,
      "ĠApp": 5666,
      "Ġinser": 5667,
      "Ġinstruction": 5668,
      "Ġ94": 5669,
      "Ġ71": 5670,
      "Ġmc": 5671,
      "Ġreach": 5672,
      "sequence": 5673,
      "Ġ````": 5674,
      "Ġtoken": 5675,
      "ĠBubble": 5676,
      "ĠBayes": 5677,
      "Ġoffer": 5678,
      "ÂĶÂĤ": 5679,
      "amer": 5680,
      "ĠTod": 5681,
      "ĠHome": 5682,
      "Ġul": 5683,
      "Ġrai": 5684,
      "Ġdemon": 5685,
      "eds": 5686,
      "Ġve": 5687,
      "change": 5688,
      "ĠSAR": 5689,
      "ĠSome": 5690,
      "Ġ',": 5691,
      "Ġ'.": 5692,
      "Ġhad": 5693,
      "berry": 5694,
      "Ġ2010": 5695,
      "Ġ2017": 5696,
      "unk": 5697,
      "Ġwide": 5698,
      "ĠFe": 5699,
      "ĠFahrenheit": 5700,
      "ĠDis": 5701,
      "ĠDELE": 5702,
      "Ġgood": 5703,
      "ameters": 5704,
      "Ġlamb": 5705,
      "Ġprinting": 5706,
      "Ġ175": 5707,
      "Ġ1799": 5708,
      "quatic": 5709,
      "Ġ1950": 5710,
      "Ġ1964": 5711,
      "Ġ1961": 5712,
      "Ġ1983": 5713,
      "Ġ1905": 5714,
      "Ġ1939": 5715,
      "Ġconson": 5716,
      "0001": 5717,
      "illi": 5718,
      "illa": 5719,
      "ican": 5720,
      "icros": 5721,
      "Ġmap": 5722,
      "Ġ1889": 5723,
      "Ġ1863": 5724,
      "ascending": 5725,
      "asci": 5726,
      "Ġalways": 5727,
      "ĠRun": 5728,
      "ĠResult": 5729,
      "],[": 5730,
      "ĠEl": 5731,
      "Ġkg": 5732,
      "comÃł": 5733,
      "ism": 5734,
      "126": 5735,
      "128": 5736,
      "1980": 5737,
      "uster": 5738,
      "ĠGmail": 5739,
      "ĠGood": 5740,
      "ĠMake": 5741,
      "roman": 5742,
      "Ġcalendar": 5743,
      "Ġ254": 5744,
      "Ġ145": 5745,
      "Ġprob": 5746,
      "Ġcomment": 5747,
      "Ġcommun": 5748,
      "Ġsit": 5749,
      "pson": 5750,
      "reatest": 5751,
      "164": 5752,
      "167": 5753,
      "rectangle": 5754,
      "diction": 5755,
      "mean": 5756,
      "Ġbool": 5757,
      "tac": 5758,
      "338": 5759,
      "oney": 5760,
      "ressed": 5761,
      "ERI": 5762,
      "Ġunsign": 5763,
      "acci": 5764,
      "clusive": 5765,
      "Ġdisease": 5766,
      "Ġlimit": 5767,
      "ĠRevolution": 5768,
      "Ġsubset": 5769,
      "fff": 5770,
      "ĠfindMax": 5771,
      "ĠendIndex": 5772,
      "ograp": 5773,
      "token": 5774,
      "Ġshopping": 5775,
      "ĠstartIndex": 5776,
      "utex": 5777,
      "Ġperiod": 5778,
      "Ġtempor": 5779,
      "Ġtemplate": 5780,
      "Ġfive": 5781,
      "Ġmatplotlib": 5782,
      "Ġsorts": 5783,
      "Ġcompute": 5784,
      "rypt": 5785,
      "ision": 5786,
      "Ġspecify": 5787,
      "startIndex": 5788,
      "Ġ-------": 5789,
      "End": 5790,
      "ĠProgram": 5791,
      "userAgent": 5792,
      "Ġ261": 5793,
      "Ġenemy": 5794,
      "Ġintersection": 5795,
      "Ġinterface": 5796,
      "atching": 5797,
      "Ġdatabases": 5798,
      "Ġminutes": 5799,
      "ING": 5800,
      "Ġpositions": 5801,
      "fig": 5802,
      "ANs": 5803,
      "rench": 5804,
      "Ġheads": 5805,
      "ĠfoundationÃł": 5806,
      "crement": 5807,
      "Height": 5808,
      "Ġswaps": 5809,
      "track": 5810,
      "ĠAMOLED": 5811,
      "Ġtargets": 5812,
      "Ġvectors": 5813,
      "Ġblockchain": 5814,
      "Ġlotta": 5815,
      "Ġtransactions": 5816,
      "obot": 5817,
      "DBC": 5818,
      "aeiou": 5819,
      "Ġbutter": 5820,
      "venture": 5821,
      "ĠBeautiful": 5822,
      "auto": 5823,
      "response": 5824,
      "Ġgoes": 5825,
      "Ġhandling": 5826,
      "Ġstands": 5827,
      "books": 5828,
      "################################################################################################################################################################################################################################################################################################################################################################################################################################################################################################################################": 5829,
      "exec": 5830,
      "Ġbooks": 5831,
      "signup": 5832,
      "Ġclicked": 5833,
      "Ġknown": 5834,
      "Ġtkinter": 5835,
      "Ġamong": 5836,
      "Ġmaking": 5837,
      "Ġidentif": 5838,
      "Ġidentify": 5839,
      "Ġvisitors": 5840,
      "Ġchanging": 5841,
      "ĠGETDATE": 5842,
      "employee": 5843,
      "bonacci": 5844,
      "Ġbirds": 5845,
      "ĠCREATE": 5846,
      "Ġevaluate": 5847,
      "nytimes": 5848,
      "Ġsubtracting": 5849,
      "Ġavailability": 5850,
      "Ġrepeatedly": 5851,
      "Ġoccurrences": 5852,
      "Query": 5853,
      "Ġnostalgia": 5854,
      "ĠDATEADD": 5855,
      "Temperature": 5856,
      "ĠGodÃł": 5857,
      "ĠLinkedList": 5858,
      "ToBST": 5859,
      "Ġefficient": 5860,
      "Ġcategorize": 5861,
      "Ġdepending": 5862,
      "Ġgenre": 5863,
      "AVING": 5864,
      "CoV": 5865,
      "aaS": 5866,
      "ammals": 5867,
      "Ġdevelop": 5868,
      "Ġview": 5869,
      "ĠSwap": 5870,
      "ĠNorth": 5871,
      "Ġcomparing": 5872,
      "Ġworkouts": 5873,
      "Ġsmtplib": 5874,
      "rillic": 5875,
      "Ġlitter": 5876,
      "Ġupdates": 5877,
      "Ġhorizontally": 5878,
      "Ġfraud": 5879,
      "Ġplatform": 5880,
      "Ġdemonstr": 5881,
      "ĠSARS": 5882,
      "Ġunsigned": 5883,
      "ĠBeautifulSoup": 5884,
      "!#$": 5885,
      "'ll": 5886,
      "(*)": 5887,
      ")!": 5888,
      ")<": 5889,
      ")**": 5890,
      ")`,": 5891,
      "*.": 5892,
      "-(-": 5893,
      "._": 5894,
      "250": 5895,
      "47": 5896,
      "=$": 5897,
      ">$": 5898,
      "@[": 5899,
      "Bon": 5900,
      "BOARD": 5901,
      "Call": 5902,
      "Don": 5903,
      "Double": 5904,
      "EB": 5905,
      "Go": 5906,
      "Get": 5907,
      "ILE": 5908,
      "Love": 5909,
      "Link": 5910,
      "Note": 5911,
      "Out": 5912,
      "Python": 5913,
      "Root": 5914,
      "Robot": 5915,
      "Sm": 5916,
      "Search": 5917,
      "Tw": 5918,
      "Tilt": 5919,
      "VP": 5920,
      "Wi": 5921,
      "]?": 5922,
      "^(-": 5923,
      "_{": 5924,
      "`-": 5925,
      "asing": 5926,
      "bility": 5927,
      "based": 5928,
      "curr": 5929,
      "call": 5930,
      "ched": 5931,
      "codes": 5932,
      "dae": 5933,
      "fs": 5934,
      "far": 5935,
      "fil": 5936,
      "folder": 5937,
      "ha": 5938,
      "hero": 5939,
      "house": 5940,
      "ier": 5941,
      "ious": 5942,
      "jective": 5943,
      "jfree": 5944,
      "kens": 5945,
      "language": 5946,
      "mmetric": 5947,
      "national": 5948,
      "oon": 5949,
      "pred": 5950,
      "ptime": 5951,
      "press": 5952,
      "person": 5953,
      "pair": 5954,
      "presses": 5955,
      "qty": 5956,
      "rank": 5957,
      "sm": 5958,
      "same": 5959,
      "sys": 5960,
      "shift": 5961,
      "slope": 5962,
      "schools": 5963,
      "tn": 5964,
      "trees": 5965,
      "uary": 5966,
      "var": 5967,
      "water": 5968,
      "you": 5969,
      "yze": 5970,
      "your": 5971,
      "zy": 5972,
      "zxing": 5973,
      "Â¡": 5974,
      "Â¬": 5975,
      "Â½": 5976,
      "Ãĭ": 5977,
      "âĢ": 5978,
      "Ġown": 5979,
      "Â¦Â¤):": 5980,
      "Â¦Â®**": 5981,
      "Â¦Âı*": 5982,
      "Â¦Âı),": 5983,
      "Â¦ÂĹ\":": 5984,
      "Â¦ÂĹ**:": 5985,
      "Â¦Â·?": 5986,
      "Â¦Â·\",": 5987,
      "Â¦Â£**": 5988,
      "Â¦Â¥:": 5989,
      "Â¦Â¡^": 5990,
      "eras": 5991,
      "ertain": 5992,
      "erry": 5993,
      "ergy": 5994,
      "erund": 5995,
      "tetur": 5996,
      "Â¦Âĥ\\": 5997,
      "sts": 5998,
      "sine": 5999,
      "ssive": 6000,
      "-------": 6001,
      "Â§Â§!": 6002,
      "Â§Â§):": 6003,
      "Â§Â§',": 6004,
      "Ġ*=": 6005,
      "Ġ\"\\": 6006,
      "Ġ\"|": 6007,
      "Â¦ÂĻ\"": 6008,
      "Ġ299": 6009,
      ".....": 6010,
      "ined": 6011,
      "inance": 6012,
      "initial": 6013,
      "Ġxn": 6014,
      "Ġ`#": 6015,
      "Ġ`</": 6016,
      "Ġago": 6017,
      "Ġcy": 6018,
      "Ġclear": 6019,
      "Ġcnt": 6020,
      "Ġctx": 6021,
      "__':": 6022,
      "repe": 6023,
      "ression": 6024,
      "regex": 6025,
      "Â§Â¬+": 6026,
      "Ġiii": 6027,
      "Ġimages": 6028,
      "levant": 6029,
      "Ġfin": 6030,
      "Ġbad": 6031,
      "Ġbra": 6032,
      "Ġ<?": 6033,
      "alue": 6034,
      "alog": 6035,
      "Ġslic": 6036,
      "Ġslavery": 6037,
      "Ġnature": 6038,
      "Ġdon": 6039,
      "Ġday": 6040,
      "Ġdomain": 6041,
      "then": 6042,
      "this": 6043,
      "three": 6044,
      "Ġ08": 6045,
      "Ġwon": 6046,
      "ĠAx": 6047,
      "ĠAy": 6048,
      "ĠAge": 6049,
      "ĠAAB": 6050,
      "ĠAUT": 6051,
      "ĠCD": 6052,
      "ĠCan": 6053,
      "ĠCla": 6054,
      "ĠCol": 6055,
      "ĠCall": 6056,
      "ĠCSV": 6057,
      "Ġiniti": 6058,
      "Ġinsert": 6059,
      "Ġ92": 6060,
      "atin": 6061,
      "Ġmammals": 6062,
      "Ġrecent": 6063,
      "Ġrelevant": 6064,
      "segments": 6065,
      "like": 6066,
      "Ġtoo": 6067,
      "Ġtogether": 6068,
      "ĠBÃł": 6069,
      "Ġeq": 6070,
      "Ġes": 6071,
      "Ġele": 6072,
      "ĠTra": 6073,
      "ĠText": 6074,
      "ĠTitle": 6075,
      "ĠTemp": 6076,
      "ĠTABLE": 6077,
      "ĠTEX": 6078,
      "hile": 6079,
      "hibi": 6080,
      "Ġiss": 6081,
      "ada": 6082,
      "ades": 6083,
      "esar": 6084,
      "loor": 6085,
      "loop": 6086,
      "local": 6087,
      "ged": 6088,
      "river": 6089,
      "Ġroll": 6090,
      "Ġrahs": 6091,
      "ately": 6092,
      "ĠSci": 6093,
      "ĠSnow": 6094,
      "ĠSolution": 6095,
      "Ġ'%": 6096,
      "Ġ'{": 6097,
      "Ġ'__": 6098,
      "Ġhab": 6099,
      "vetica": 6100,
      "cessing": 6101,
      "Ġ121": 6102,
      "Ġ127": 6103,
      "ĠPR": 6104,
      "ĠPoint": 6105,
      "),(": 6106,
      "102": 6107,
      "105": 6108,
      "ĠDFS": 6109,
      "ĠDOM": 6110,
      "ĠDriver": 6111,
      "Ġgu": 6112,
      "Ġgreatest": 6113,
      "Ġgerund": 6114,
      "Ġ(([": 6115,
      "irus": 6116,
      "ĠNative": 6117,
      "Ġ170": 6118,
      "Ġ190": 6119,
      "Ġ1900": 6120,
      "Ġ1945": 6121,
      "Ġ1972": 6122,
      "Ġconstant": 6123,
      "Ġconvin": 6124,
      "asy": 6125,
      "ason": 6126,
      "Ġaltitude": 6127,
      "Ġ113": 6128,
      "2010": 6129,
      "2014": 6130,
      "Ġexce": 6131,
      "ĠError": 6132,
      "()`.": 6133,
      "proc": 6134,
      "graduation": 6135,
      "isdigit": 6136,
      "ÂĢÂĤ": 6137,
      "127": 6138,
      "(\"%": 6139,
      "192": 6140,
      "1940": 6141,
      "ĠMON": 6142,
      "Ġ135": 6143,
      "Â¦Âķ\")": 6144,
      "Ġcollection": 6145,
      "ĠLog": 6146,
      "ĠLove": 6147,
      "Ġos": 6148,
      "144": 6149,
      "Ġ999": 6150,
      "Ġhidden": 6151,
      "Ġstrength": 6152,
      "Ġpos": 6153,
      "connect": 6154,
      "ĠValue": 6155,
      "acks": 6156,
      "ĠUp": 6157,
      "1500": 6158,
      "strftime": 6159,
      "strptime": 6160,
      "ĠÃĺÂªÃĽ": 6161,
      "187": 6162,
      "trl": 6163,
      "acity": 6164,
      "Ġdict": 6165,
      "Ġdirectory": 6166,
      "Ġdiagon": 6167,
      "Â§Â¦%):": 6168,
      "phant": 6169,
      "ĠRepeat": 6170,
      "ĠReviews": 6171,
      "ÂģÂĻ": 6172,
      "ions": 6173,
      "Ġsubtrees": 6174,
      "2005": 6175,
      "2009": 6176,
      "ffe": 6177,
      "Ġfinds": 6178,
      "Ġ401": 6179,
      "Inter": 6180,
      "alize": 6181,
      "Ġdisc": 6182,
      "space": 6183,
      "Ġnever": 6184,
      "Ġ_________": 6185,
      "Ġformed": 6186,
      "myInt": 6187,
      "ĠKey": 6188,
      "primes": 6189,
      "primary": 6190,
      "shtein": 6191,
      "Ġstarts": 6192,
      "Ġrepla": 6193,
      "222": 6194,
      "negative": 6195,
      "ĠQd": 6196,
      "Ġmatches": 6197,
      "Ġmathema": 6198,
      "rown": 6199,
      "rowth": 6200,
      "678": 6201,
      "6789": 6202,
      "positive": 6203,
      "ÂŁÂĶ": 6204,
      "cursive": 6205,
      "Ġapple": 6206,
      "overn": 6207,
      "ĠABAB": 6208,
      "Ġkeypresses": 6209,
      "indexOf": 6210,
      "Ġsizeof": 6211,
      "Ġcases": 6212,
      "Ġdifferences": 6213,
      "Ġoverflow": 6214,
      "Ġoutside": 6215,
      "Ġsquared": 6216,
      "Ġsquares": 6217,
      "ÂŁÂĮ": 6218,
      "848": 6219,
      "ĠAnimal": 6220,
      "ceptron": 6221,
      "abcd": 6222,
      "rawberry": 6223,
      "Ġincluded": 6224,
      "Ġconditional": 6225,
      "\":\":\":": 6226,
      "Ġincreasing": 6227,
      "ĠAddress": 6228,
      "Stack": 6229,
      "auty": 6230,
      "author": 6231,
      "Ġ________________________": 6232,
      "Ġagents": 6233,
      "ĠMySQL": 6234,
      "discriminant": 6235,
      "ĠINNER": 6236,
      "choice": 6237,
      "Ġoperators": 6238,
      "corpus": 6239,
      "movi": 6240,
      "Ġcoordinate": 6241,
      "Ġcosine": 6242,
      "canvas": 6243,
      "skip": 6244,
      "ross": 6245,
      "ugust": 6246,
      "uffix": 6247,
      "--------------": 6248,
      "Ġdivided": 6249,
      "Ġeffect": 6250,
      "EMENT": 6251,
      "ĠNumPy": 6252,
      "Ġassigns": 6253,
      "Ġassigned": 6254,
      "OfString": 6255,
      "ousel": 6256,
      "Ġclassify": 6257,
      "Ġseparated": 6258,
      "events": 6259,
      "ruit": 6260,
      "ĠcoversÃł": 6261,
      "Ġmanager": 6262,
      "ĠNaive": 6263,
      "Ġparenthe": 6264,
      "))))))))))))))))))))))))))))))))))))))))))))))))))))))))))))))))))))))))))))))))))))))))))))))))))))))))))))))))))))))))))))))))))))))))))))))))))))))))))))))))))))))))))))))))))))))))))))))))))))))))))))))))))))))))))))))))))))))))))))))))))))))))))))))))))))))))))))))))))))))))))))))))))))))))))))))))))))))))))))))))))))))))))))))))))))))))))))))))))))))))))))))))))))))))))))))))))))))))))))))))))))))))))))))))))))))))))))))))))))))))))))))))))))))))))))))))))))))))))))))))))))))))))))))))))))))))))))))))": 6265,
      "ĠUserID": 6266,
      "ĠArrays": 6267,
      "ĠDateTime": 6268,
      "Ġtypos": 6269,
      "ĠContinue": 6270,
      "ĠQuantity": 6271,
      "........................................................................................................................................................................................................................................................................................................................................................................................................................................................................................................................................................................................................................................................................................................................................................................................................": 6272,
      "Ġjohnsmith": 6273,
      "ĠLoop": 6274,
      "Ġdistribution": 6275,
      "Ġappears": 6276,
      "HTML": 6277,
      "children": 6278,
      "gistration": 6279,
      "posts": 6280,
      "Ġinitializes": 6281,
      "Ġrectangle": 6282,
      "ĠNoSQL": 6283,
      "Ġconstructor": 6284,
      ".*[": 6285,
      "multiply": 6286,
      "ĠbubbleSort": 6287,
      "ĠOnline": 6288,
      "\\\\\\\\\\\\\\\\\\\\\\\\\\\\\\\\\\\\\\\\\\\\\\\\\\\\\\\\\\\\\\\\\\\\\\\\\\\\\\\\\\\\\\\\\\\\\\\\\\\\\\\\\\\\\\\\\\\\\\\\\\\\\\\\\\\\\\\\\\\\\\\\\\\\\\\\\\\\\\\\\\\\\\\\\\\\\\\\\\\\\\\\\\\\\\\\\\\\\\\\\\\\\\\\\\\\\\\\\\\\\\\\\\\\\\\\\\\\\\\\\\\\\\\\\\\\\\\\": 6289,
      "Ġclosing": 6290,
      "Ġtails": 6291,
      "Ġmovie": 6292,
      "radio": 6293,
      "ĠCoS": 6294,
      "ĠStyle": 6295,
      "Ġ'-':": 6296,
      "Ġprompts": 6297,
      "alanced": 6298,
      "Ġetc": 6299,
      "Ġattendance": 6300,
      "Ġextract": 6301,
      "What": 6302,
      "Ġagainst": 6303,
      "ĠunderstandingÃł": 6304,
      "Ġconsidered": 6305,
      "EIG": 6306,
      "IZE": 6307,
      "ĠHelvetica": 6308,
      "Ġsymbol": 6309,
      "Ġfermentation": 6310,
      "ACTED": 6311,
      "CREMENT": 6312,
      "Ġrgba": 6313,
      "Ġtimestamp": 6314,
      "MakeAD": 6315,
      "REDACTED": 6316,
      "stead": 6317,
      "tificial": 6318,
      "ĠDELETE": 6319,
      "icrosoft": 6320,
      "ascii": 6321,
      "Ġprobability": 6322,
      "Ġlitterbox": 6323,
      "âĢį": 6324,
      "Ġslicing": 6325,
      "ĠTEXT": 6326,
      "ĠMONTH": 6327,
      "&*": 6328,
      "'):": 6329,
      "'])": 6330,
      "'];": 6331,
      "({": 6332,
      ")^-": 6333,
      "+)": 6334,
      "+-": 6335,
      ".,": 6336,
      "/-": 6337,
      "5000": 6338,
      "700": 6339,
      "792": 6340,
      ":\"": 6341,
      ":\")": 6342,
      "AA": 6343,
      "Age": 6344,
      "Bar": 6345,
      "CB": 6346,
      "Cy": 6347,
      "Code": 6348,
      "Di": 6349,
      "EO": 6350,
      "Ext": 6351,
      "Employe": 6352,
      "Four": 6353,
      "Free": 6354,
      "Full": 6355,
      "Float": 6356,
      "Gen": 6357,
      "Gener": 6358,
      "GET": 6359,
      "Lo": 6360,
      "Let": 6361,
      "Lay": 6362,
      "Min": 6363,
      "Must": 6364,
      "Ne": 6365,
      "Now": 6366,
      "OO": 6367,
      "Pop": 6368,
      "Person": 6369,
      "Range": 6370,
      "SW": 6371,
      "Sn": 6372,
      "Sample": 6373,
      "SUM": 6374,
      "Test": 6375,
      "Up": 6376,
      "WS": 6377,
      "Write": 6378,
      "Year": 6379,
      "]\\": 6380,
      "_,": 6381,
      "asi": 6382,
      "ahead": 6383,
      "agrams": 6384,
      "bÃł": 6385,
      "bet": 6386,
      "bye": 6387,
      "buzz": 6388,
      "cy": 6389,
      "dp": 6390,
      "eff": 6391,
      "factorial": 6392,
      "game": 6393,
      "generate": 6394,
      "have": 6395,
      "iÃł": 6396,
      "km": 6397,
      "kx": 6398,
      "lank": 6399,
      "mol": 6400,
      "match": 6401,
      "nD": 6402,
      "nd": 6403,
      "np": 6404,
      "nam": 6405,
      "night": 6406,
      "null": 6407,
      "ope": 6408,
      "obotic": 6409,
      "pan": 6410,
      "ped": 6411,
      "pie": 6412,
      "rodu": 6413,
      "sy": 6414,
      "snowflake": 6415,
      "tual": 6416,
      "uk": 6417,
      "vv": 6418,
      "vis": 6419,
      "wn": 6420,
      "watch": 6421,
      "write": 6422,
      "xi": 6423,
      "xz": 6424,
      "yper": 6425,
      "}\".": 6426,
      "Â«": 6427,
      "Ã§": 6428,
      "Ã©": 6429,
      "Ãĩ": 6430,
      "Ġ!": 6431,
      "Ġ~": 6432,
      "Ġput": 6433,
      "Ġ--------------------------------": 6434,
      "Ġ):": 6435,
      "Â§Âĩ**": 6436,
      "Â¦Â¤...": 6437,
      "Â¦Â¸^": 6438,
      "Â¦Â®_": 6439,
      "Â¦ÂŁ\":": 6440,
      "Â¦ÂĹ?": 6441,
      "Â¦Â¶/": 6442,
      "Â¦Â¶;": 6443,
      "Â¦Â¶\",": 6444,
      "Â¦ÂŃ\",": 6445,
      "Â§ÂĢ),": 6446,
      "Â¦Âĩ'": 6447,
      "Â¦Â¡?": 6448,
      "Â¦Â¡]": 6449,
      "Â¦Âī),": 6450,
      "Â¦Âĸ\",": 6451,
      "Â¦Âĵ'": 6452,
      "--;": 6453,
      "erm": 6454,
      "ern": 6455,
      "stit": 6456,
      "strip": 6457,
      "animation": 6458,
      "ended": 6459,
      "Â¦Âĺ\"": 6460,
      "Â¦Âŀ\"": 6461,
      "Â¦Âŀ?": 6462,
      "Ġ\"*": 6463,
      "Â§Â¨',": 6464,
      "Ġ=-": 6465,
      "Ġ(,": 6466,
      "Ġ(~": 6467,
      "Ġ(.)": 6468,
      "Â§Â¦+": 6469,
      "Ġ340": 6470,
      "ina": 6471,
      "inf": 6472,
      "integer": 6473,
      "Ġ+(": 6474,
      "Â§Â¯\"": 6475,
      "ones": 6476,
      "onav": 6477,
      "Ġcb": 6478,
      "Ġcd": 6479,
      "Ġcv": 6480,
      "Ġche": 6481,
      "Ġcast": 6482,
      "Ġcodes": 6483,
      "Ġcourse": 6484,
      "Ġclockwise": 6485,
      "replace": 6486,
      "Â§Â¬/": 6487,
      "orp": 6488,
      "Â§Â®\"": 6489,
      "leage": 6490,
      "level": 6491,
      "tice": 6492,
      "Ġfar": 6493,
      "Ġfood": 6494,
      "Ġfahrenheit": 6495,
      "Ġflight": 6496,
      "Ġbug": 6497,
      "Ġpet": 6498,
      "Ġport": 6499,
      "Ġpie": 6500,
      "Ġpanel": 6501,
      "ald": 6502,
      "Ġsur": 6503,
      "Ġslow": 6504,
      "Ġsave": 6505,
      "Ġsense": 6506,
      "008": 6507,
      "Ġ[{": 6508,
      "Ġdream": 6509,
      "Ġdolor": 6510,
      "Ġwr": 6511,
      "Ġwrap": 6512,
      "ĠAg": 6513,
      "ĠCH": 6514,
      "ĠCatcher": 6515,
      "Ġinvert": 6516,
      "Ġincoming": 6517,
      "Ġanagrams": 6518,
      "Ġ700": 6519,
      "Ġms": 6520,
      "Ġref": 6521,
      "Ġreal": 6522,
      "Ġrece": 6523,
      "Ġrema": 6524,
      "lio": 6525,
      "Ġ104": 6526,
      "Ġ1024": 6527,
      "ental": 6528,
      "Ġtokens": 6529,
      "Ġ/=": 6530,
      "Ġevent": 6531,
      "Ġecho": 6532,
      "ĠyÃł": 6533,
      "Ġyellow": 6534,
      "ĠTime": 6535,
      "ĠTake": 6536,
      "oding": 6537,
      "ĠHH": 6538,
      "los": 6539,
      "lored": 6540,
      "rive": 6541,
      "Ġradi": 6542,
      "atement": 6543,
      "Ġdecor": 6544,
      "Ġdeclaration": 6545,
      "Ġthose": 6546,
      "):**": 6547,
      "edge": 6548,
      "Ġvolume": 6549,
      "olled": 6550,
      "ĠStr": 6551,
      "ĠSorted": 6552,
      "ĠSCSS": 6553,
      "ĠSIZE": 6554,
      "Ġ'*": 6555,
      "Ġ''.": 6556,
      "Ġ})": 6557,
      "raction": 6558,
      "Ġ126": 6559,
      "Ġ2012": 6560,
      "unit": 6561,
      "ely": 6562,
      "ounted": 6563,
      "Ġwild": 6564,
      "ĠFi": 6565,
      "ĠFizz": 6566,
      "Ġarri": 6567,
      "Ġaround": 6568,
      "itor": 6569,
      "italic": 6570,
      "ĠPy": 6571,
      "ĠPassword": 6572,
      "ĠPlease": 6573,
      "104": 6574,
      "ĠDi": 6575,
      "abilities": 6576,
      "ĠNow": 6577,
      "ivor": 6578,
      "ivil": 6579,
      "Ġ1520": 6580,
      "oph": 6581,
      "operat": 6582,
      "Ġ1914": 6583,
      "Ġ1917": 6584,
      "Ġ1955": 6585,
      "Ġ1942": 6586,
      "Ġ1901": 6587,
      "Ġ1973": 6588,
      "Ġ1956": 6589,
      "Ġ1994": 6590,
      "icular": 6591,
      "Â¦Â¸\"]": 6592,
      "ÂĹ...": 6593,
      "ÂĪÂļ-": 6594,
      "Ġmagn": 6595,
      "ewable": 6596,
      "ĠOf": 6597,
      "ĠOVER": 6598,
      "Ġ1812": 6599,
      "asure": 6600,
      "Ġbecom": 6601,
      "2016": 6602,
      "Ġcannot": 6603,
      "Ġexact": 6604,
      "ĠRight": 6605,
      "ĠRye": 6606,
      "ĠRED": 6607,
      "ĠRoman": 6608,
      "Ġtran": 6609,
      "ĠEND": 6610,
      "Ġ____(": 6611,
      "adient": 6612,
      "Ġkind": 6613,
      "comment": 6614,
      "andle": 6615,
      "iscing": 6616,
      "isalpha": 6617,
      "Ġonto": 6618,
      "Ġseed": 6619,
      "Ġsections": 6620,
      "1970": 6621,
      "1994": 6622,
      "1986": 6623,
      "minder": 6624,
      "ĠGH": 6625,
      "ĠGats": 6626,
      "ĠMan": 6627,
      "ĠMed": 6628,
      "ĠMove": 6629,
      "ĠMIN": 6630,
      "Ġcalculator": 6631,
      "Ġ252": 6632,
      "ifts": 6633,
      "ĠLong": 6634,
      "ored": 6635,
      "Ġcomments": 6636,
      "Ġsim": 6637,
      "Ġsite": 6638,
      "147": 6639,
      "1111": 6640,
      "arest": 6641,
      "confirm": 6642,
      "ĠVP": 6643,
      "Ġ504": 6644,
      "ĠmaxSize": 6645,
      "Ġqui": 6646,
      "ĠUr": 6647,
      "member": 6648,
      "ordered": 6649,
      "ectangle": 6650,
      "256": 6651,
      "ĠYour": 6652,
      "Ġunits": 6653,
      "aches": 6654,
      "Ġlooping": 6655,
      "458": 6656,
      "phere": 6657,
      "ĠRecursive": 6658,
      "gorian": 6659,
      "Ġsubject": 6660,
      "pecies": 6661,
      "Ġacc": 6662,
      "arrot": 6663,
      "Ġops": 6664,
      "toString": 6665,
      "toChar": 6666,
      "Ġ]\\": 6667,
      "Ġshor": 6668,
      "ARY": 6669,
      "myArray": 6670,
      "yzer": 6671,
      "Ġkeys": 6672,
      "Ġ277": 6673,
      "Â§Â«%)": 6674,
      "Ġperpend": 6675,
      "ĠbackgroundÃł": 6676,
      "logo": 6677,
      "osen": 6678,
      "Ġrights": 6679,
      "Ġcontact": 6680,
      "Ġlogs": 6681,
      "triangle": 6682,
      "Ġcomputes": 6683,
      "mainloop": 6684,
      "ecimal": 6685,
      "Ġbetter": 6686,
      "substring": 6687,
      ">`:": 6688,
      "Ġsuff": 6689,
      "curity": 6690,
      "udy": 6691,
      "Ġprevent": 6692,
      "ABC": 6693,
      "Energy": 6694,
      "oved": 6695,
      "Ġ123456": 6696,
      "ĠPro": 6697,
      "ĠStates": 6698,
      "Ġenvironment": 6699,
      "project": 6700,
      "371": 6701,
      "ĠDeter": 6702,
      "ÂŁÂı": 6703,
      "||||": 6704,
      "Ġdefining": 6705,
      "AND": 6706,
      "ANSW": 6707,
      "Ġtraverse": 6708,
      "axis": 6709,
      "Ġ_____________": 6710,
      "Ġindentation": 6711,
      "binations": 6712,
      "Ġfrequent": 6713,
      "Head": 6714,
      "ĠdebtsÃł": 6715,
      "ORD": 6716,
      "Ġproperly": 6717,
      "ocks": 6718,
      "Ġencounter": 6719,
      "ĠConsole": 6720,
      "elements": 6721,
      "prev": 6722,
      "IMARY": 6723,
      "Ġlonger": 6724,
      "cessed": 6725,
      "Ġ#####": 6726,
      "Cloud": 6727,
      "Ġretrieves": 6728,
      "Ġskip": 6729,
      "oller": 6730,
      "columnNumber": 6731,
      "Ġencrypt": 6732,
      "And": 6733,
      "Fizz": 6734,
      "moS": 6735,
      "Ġlayover": 6736,
      "Ġpopular": 6737,
      "ĠactiveEd": 6738,
      "Ġextension": 6739,
      "firstName": 6740,
      "Ġtermin": 6741,
      "healthy": 6742,
      "Ġdividing": 6743,
      "Connection": 6744,
      "tsx": 6745,
      "Ġgroups": 6746,
      "cingÃł": 6747,
      "Ġrepeating": 6748,
      "ĠUnited": 6749,
      "ESTION": 6750,
      "Ġshows": 6751,
      "Ġpermutation": 6752,
      "Ġclickable": 6753,
      "compound": 6754,
      "structor": 6755,
      "eved": 6756,
      "Ġopening": 6757,
      "Ġmanip": 6758,
      "QUESTION": 6759,
      "ovie": 6760,
      "Ġremoves": 6761,
      "Ġmatching": 6762,
      "Ġreaches": 6763,
      "ĠShape": 6764,
      "Ġcorrectly": 6765,
      "ĠCompany": 6766,
      "-]+@[": 6767,
      "Ġtypes": 6768,
      "Ġvertically": 6769,
      "________________________________________________________________________________________________________________________________________________________________________________________________________________________________________________________________": 6770,
      "CAF": 6771,
      "Dogs": 6772,
      "Ġsalt": 6773,
      "ĠCRIS": 6774,
      "ĠOpenAI": 6775,
      "ĠOpenWeather": 6776,
      "door": 6777,
      "Ġrectang": 6778,
      "ĠROI": 6779,
      "Ġobj": 6780,
      "Ġtechnique": 6781,
      "Ġaccordingly": 6782,
      "gonomic": 6783,
      "Ġavailable": 6784,
      "$$$$$$$$$$$$$$$$$$$$$$$$$$$$$$$$$$$$$$$$$$$$$$$$$$$$$$$$$$$$$$$$": 6785,
      "Ġoccurrence": 6786,
      "oftware": 6787,
      "umulator": 6788,
      "Ġmovies": 6789,
      "ĠPerceptron": 6790,
      "@@@@@@@@@@@@@@@@@@@@@@@@@@@@@@@@@@@@@@@@@@@@@@@@@@@@@@@@@@@@@@@@@@@@@@@@@@@@@@@@@@@@@@@@@@@@@@@@@@@@@@@@@@@@@@@@@@@@@@@@@@@@@@@@": 6791,
      "--------------------------------------------------------": 6792,
      "Format": 6793,
      "variety": 6794,
      "Ġpassed": 6795,
      "lobal": 6796,
      "Ġswapped": 6797,
      "Ġutili": 6798,
      "Ġbounds": 6799,
      "ĠBMI": 6800,
      "amazon": 6801,
      "Ġprofe": 6802,
      "ĠMayan": 6803,
      "ĠLike": 6804,
      "ĠUSD": 6805,
      "Axis": 6806,
      "Ġergonomic": 6807,
      "Ġ\"+\"": 6808,
      "Ġstopwords": 6809,
      "ĠPhoneNumber": 6810,
      "Ġoptional": 6811,
      "Left": 6812,
      "poly": 6813,
      "environmental": 6814,
      "Ġassoci": 6815,
      "ĠServices": 6816,
      "ublisher": 6817,
      "?=.*[": 6818,
      "candidates": 6819,
      "Ġdimensions": 6820,
      "ĠAuthor": 6821,
      "Ġinsertion": 6822,
      "Ġlambda": 6823,
      "ographic": 6824,
      "Ġdemonstrates": 6825,
      "!#$%": 6826,
      "Robots": 6827,
      "ĠClassi": 6828,
      "ĠPRIMARY": 6829,
      "ĠconvincingÃł": 6830,
      "ÂŁÂĶÂ¥": 6831,
      "Ġparentheses": 6832,
      "ĠCoSmoS": 6833,
      "onavirus": 6834,
      "ĠsenseÃł": 6835,
      "Ġremainder": 6836,
      "Ġbecomes": 6837,
      "Ġexactly": 6838,
      "ĠGatsby": 6839,
      "toCharArray": 6840,
      "Ġperpendicular": 6841,
      "ANSWER": 6842,
      "ĠactiveEdge": 6843,
      "ĠCRISPR": 6844,
      "Ġassociated": 6845,
      "\"?": 6846,
      "\"])": 6847,
      "'))": 6848,
      "'ve": 6849,
      ")*": 6850,
      "+.": 6851,
      "-\"": 6852,
      "011": 6853,
      "029": 6854,
      "350": 6855,
      "635": 6856,
      ":.": 6857,
      ";`": 6858,
      ";\"></": 6859,
      "<>": 6860,
      "=)": 6861,
      "=?": 6862,
      ">)": 6863,
      "AY": 6864,
      "CS": 6865,
      "CU": 6866,
      "Ca": 6867,
      "Col": 6868,
      "Customers": 6869,
      "Cache": 6870,
      "Ctrl": 6871,
      "EE": 6872,
      "EAR": 6873,
      "FL": 6874,
      "HR": 6875,
      "Hi": 6876,
      "Half": 6877,
      "Handle": 6878,
      "IO": 6879,
      "Is": 6880,
      "IFF": 6881,
      "Ke": 6882,
      "KEY": 6883,
      "LO": 6884,
      "LU": 6885,
      "LAC": 6886,
      "Mon": 6887,
      "NG": 6888,
      "Not": 6889,
      "NUMBER": 6890,
      "OÃł": 6891,
      "Off": 6892,
      "One": 6893,
      "Oper": 6894,
      "Orange": 6895,
      "Open": 6896,
      "Page": 6897,
      "Part": 6898,
      "Push": 6899,
      "Price": 6900,
      "PART": 6901,
      "RAM": 6902,
      "RMS": 6903,
      "Result": 6904,
      "Si": 6905,
      "Sal": 6906,
      "Some": 6907,
      "Sign": 6908,
      "Sustain": 6909,
      "Te": 6910,
      "Tor": 6911,
      "VI": 6912,
      "VV": 6913,
      "](": 6914,
      "]`.": 6915,
      "^_`": 6916,
      "aid": 6917,
      "afe": 6918,
      "bing": 6919,
      "bed": 6920,
      "bra": 6921,
      "bus": 6922,
      "bling": 6923,
      "big": 6924,
      "breed": 6925,
      "cart": 6926,
      "ctive": 6927,
      "dir": 6928,
      "database": 6929,
      "eval": 6930,
      "eled": 6931,
      "gor": 6932,
      "gger": 6933,
      "hr": 6934,
      "href": 6935,
      "human": 6936,
      "iq": 6937,
      "ige": 6938,
      "kn": 6939,
      "lh": 6940,
      "lw": 6941,
      "mm": 6942,
      "mark": 6943,
      "nC": 6944,
      "no": 6945,
      "nas": 6946,
      "nary": 6947,
      "none": 6948,
      "names": 6949,
      "oli": 6950,
      "oes": 6951,
      "oices": 6952,
      "pL": 6953,
      "pti": 6954,
      "pad": 6955,
      "pes": 6956,
      "pur": 6957,
      "pip": 6958,
      "ral": 6959,
      "rotate": 6960,
      "sentences": 6961,
      "svg": 6962,
      "tt": 6963,
      "tun": 6964,
      "thead": 6965,
      "tbody": 6966,
      "ua": 6967,
      "uli": 6968,
      "upp": 6969,
      "wer": 6970,
      "xic": 6971,
      "xÃĤ": 6972,
      "}'": 6973,
      "ÂĮ": 6974,
      "Âı": 6975,
      "Âĵ": 6976,
      "Ġ----------------------------------------------------------------": 6977,
      "Ġ-----": 6978,
      "Ġ][": 6979,
      "Ġ________________________________": 6980,
      "Ġenergy": 6981,
      "Â¦Â¿*": 6982,
      "Â¦Âķ'": 6983,
      "Â¦Âķ),": 6984,
      "Â¦Â¨*": 6985,
      "Â¦Â¨@": 6986,
      "Â¦Â¯\")": 6987,
      "Â¦Â¬**:": 6988,
      "Â¦Â®:**": 6989,
      "Â¦ÂŁ`": 6990,
      "Â¦Â¦),": 6991,
      "Â¦ÂĹ\",": 6992,
      "Â¦Âľ**": 6993,
      "Â¦Â¶]": 6994,
      "Â¦ÂĤ'": 6995,
      "Â§Âĭ),": 6996,
      "Â¦ÂĨ.": 6997,
      "Â§ÂĢ;": 6998,
      "Â¦Â¥_": 6999,
      "Â¦Â¡/": 7000,
      "Â¦Â¡\":": 7001,
      "Â¦Â¡**:": 7002,
      "Â¦Âī.": 7003,
      "Â¦Âĵ.": 7004,
      "Â¦Âĵ.)": 7005,
      "-->": 7006,
      "eris": 7007,
      "eries": 7008,
      "tected": 7009,
      "techn": 7010,
      "Â¦Âĥ...": 7011,
      "stream": 7012,
      "strap": 7013,
      "ann": 7014,
      "since": 7015,
      "Ġ-(": 7016,
      "Â¦Âģ-": 7017,
      "Â¦Âģ.": 7018,
      "Â§Â§^": 7019,
      "Â§Â§_": 7020,
      "Ġ\"]": 7021,
      "utf": 7022,
      "ĠIX": 7023,
      "----------": 7024,
      "Ġ(?": 7025,
      "Ġ212": 7026,
      ".......": 7027,
      "Ġtan": 7028,
      "Ġtwe": 7029,
      "Ġtask": 7030,
      "Ġ320": 7031,
      "Ġ314": 7032,
      "Ġ380": 7033,
      "ini": 7034,
      "incent": 7035,
      "ĠxÃ¢": 7036,
      "ĠxÃĮ": 7037,
      "Ġ`$": 7038,
      "Ġ`:": 7039,
      "Â§Â«),": 7040,
      "Ġ540": 7041,
      "Ġ560": 7042,
      "Ġ555": 7043,
      "Ġ523": 7044,
      "Ġ+)": 7045,
      "Â§Â¯=": 7046,
      "Â§Â¯),": 7047,
      "Ġaquatic": 7048,
      "Ġcare": 7049,
      "Ġcopy": 7050,
      "Ġcoffee": 7051,
      "review": 7052,
      "ĠÃ¥": 7053,
      "ĠÃ§": 7054,
      "Ġips": 7055,
      "Ġign": 7056,
      "ĠiOS": 7057,
      "lected": 7058,
      "))^": 7059,
      "))/(": 7060,
      "Ġfx": 7061,
      "Ġfore": 7062,
      "Ġfitness": 7063,
      "((-": 7064,
      "Ġ660": 7065,
      "Ġpul": 7066,
      "Ġshe": 7067,
      "Ġsav": 7068,
      "Ġsay": 7069,
      "Ġsold": 7070,
      "Ġsays": 7071,
      "Ġsale": 7072,
      "Ġ870": 7073,
      "arb": 7074,
      "arm": 7075,
      "aring": 7076,
      "arity": 7077,
      "Ġdx": 7078,
      "Ġdiff": 7079,
      "thers": 7080,
      "Ġwins": 7081,
      "ĠAli": 7082,
      "ĠAng": 7083,
      "ĠAcc": 7084,
      "ĠArea": 7085,
      "ĠApple": 7086,
      "ĠAWS": 7087,
      "Â¦Â¨?\",": 7088,
      "ĠCx": 7089,
      "ĠCart": 7090,
      "ĠCircle": 7091,
      "umps": 7092,
      "Ġinorder": 7093,
      "Ġinstead": 7094,
      "Ġans": 7095,
      "Ġanim": 7096,
      "Ġ97": 7097,
      "Â§Âĩ?\\": 7098,
      "Ġmed": 7099,
      "Ġmuch": 7100,
      "Ġreset": 7101,
      "Ġremember": 7102,
      "separ": 7103,
      "seud": 7104,
      "omatic": 7105,
      "Ġ106": 7106,
      "enty": 7107,
      "ĠBA": 7108,
      "ĠBx": 7109,
      "ĠBase": 7110,
      "ĠBob": 7111,
      "ĠBased": 7112,
      "ĠBuzz": 7113,
      "ĠBusiness": 7114,
      "ĠBLAC": 7115,
      "ought": 7116,
      "Ġ#(#": 7117,
      "===": 7118,
      "hide": 7119,
      "history": 7120,
      "adow": 7121,
      "adecimal": 7122,
      "ĠHAVING": 7123,
      "esome": 7124,
      "esses": 7125,
      "loc": 7126,
      "lore": 7127,
      "rime": 7128,
      "Ġstory": 7129,
      "Ġstreak": 7130,
      "Ġstatistics": 7131,
      "intain": 7132,
      "Ġdemo": 7133,
      "Ġdeviation": 7134,
      "eded": 7135,
      "Ġforum": 7136,
      "Ġvis": 7137,
      "chine": 7138,
      "cherry": 7139,
      "ĠSo": 7140,
      "ĠSum": 7141,
      "ĠSass": 7142,
      "ĠSale": 7143,
      "ĠSimple": 7144,
      "ĠSEO": 7145,
      "Ġ')": 7146,
      "vex": 7147,
      "terator": 7148,
      "rab": 7149,
      "race": 7150,
      "Ġ2011": 7151,
      "eling": 7152,
      "ĠFI": 7153,
      "ĠFrom": 7154,
      "=\"/": 7155,
      "itch": 7156,
      "Â¦Â°\".": 7157,
      "ĠPost": 7158,
      "ĠPizz": 7159,
      "vertex": 7160,
      "ĠDescription": 7161,
      "Ġgives": 7162,
      "Ġ(())": 7163,
      "Ġland": 7164,
      "ything": 7165,
      "ĠNe": 7166,
      "idx": 7167,
      "Ġ1765": 7168,
      "Ġ1787": 7169,
      "Ġ151": 7170,
      "Ġ1512": 7171,
      "mazing": 7172,
      "oto": 7173,
      "otation": 7174,
      "Ġ1975": 7175,
      "Ġ1965": 7176,
      "Ġ1976": 7177,
      "Ġ1936": 7178,
      "Ġ1929": 7179,
      "Ġ1944": 7180,
      "Ġ1941": 7181,
      "Ġ1991": 7182,
      "delay": 7183,
      "Ġlost": 7184,
      "Ġlogin": 7185,
      "ically": 7186,
      "Ġmapping": 7187,
      "Ġmaintain": 7188,
      "ĠWare": 7189,
      "ĠWANs": 7190,
      "ĠWhile": 7191,
      "Ġ1860": 7192,
      "Ġ1868": 7193,
      "Ġ1891": 7194,
      "ĠHereÃ¢": 7195,
      "aste": 7196,
      "Ġitalic": 7197,
      "Ġexcept": 7198,
      "Ġexists": 7199,
      "ĠRed": 7200,
      "ĠRAM": 7201,
      "ĠRectangle": 7202,
      "Â¦ÂŁ\")": 7203,
      "Ġadip": 7204,
      "ĠEqu": 7205,
      "ĠEpson": 7206,
      "ĠkNumThreads": 7207,
      "ander": 7208,
      "andar": 7209,
      "addChild": 7210,
      "Ġchr": 7211,
      "ĠresultSet": 7212,
      "Ġones": 7213,
      "1920": 7214,
      "1960": 7215,
      "usters": 7216,
      "ĠGali": 7217,
      "ĠGreat": 7218,
      "ĠMi": 7219,
      "ĠMat": 7220,
      "ĠMod": 7221,
      "Ġ132": 7222,
      "Â¦Âķ\".": 7223,
      "Ġ2500": 7224,
      "Ġcollapse": 7225,
      "Ġ1492": 7226,
      "ified": 7227,
      "ĠLRU": 7228,
      "Ġprotected": 7229,
      "orem": 7230,
      "Ġcomma": 7231,
      "Ġcombine": 7232,
      "Ġlead": 7233,
      "Ġothers": 7234,
      "Ġorange": 7235,
      "ured": 7236,
      "Ġpoem": 7237,
      "aking": 7238,
      "ĠInc": 7239,
      "248": 7240,
      "4096": 7241,
      "169": 7242,
      "Ġsummary": 7243,
      "dictions": 7244,
      "Ġquality": 7245,
      "153": 7246,
      "tags": 7247,
      "IDTH": 7248,
      "bob": 7249,
      "bool": 7250,
      "Â¦Âĩ!\"": 7251,
      "Ġunit": 7252,
      "Ġunsorted": 7253,
      "ourne": 7254,
      "Ġhistory": 7255,
      "998": 7256,
      "ĠReplace": 7257,
      "Ġzip": 7258,
      "Ġsubquery": 7259,
      "ĠcolumnNumber": 7260,
      "Ġaccept": 7261,
      "Ġaccomp": 7262,
      "aper": 7263,
      "2001": 7264,
      "2004": 7265,
      "2007": 7266,
      "ograph": 7267,
      "10000": 7268,
      "Ġhello": 7269,
      "Â¸)": 7270,
      "ĠcalculateTilt": 7271,
      "Instant": 7272,
      "Integ": 7273,
      "Innovation": 7274,
      "toe": 7275,
      "spin": 7276,
      "spam": 7277,
      "Ġneither": 7278,
      "visit": 7279,
      "Ġvariance": 7280,
      "Ġvarious": 7281,
      "Ġshape": 7282,
      "Ġshuffle": 7283,
      "upation": 7284,
      "update": 7285,
      "Ġ:-": 7286,
      "mysite": 7287,
      "myFloat": 7288,
      "ĠKMe": 7289,
      "Auth": 7290,
      "Ġspecies": 7291,
      "Ġpartition": 7292,
      "nected": 7293,
      "needed": 7294,
      "NumArray": 7295,
      "Ġfiles": 7296,
      "rows": 7297,
      "lifier": 7298,
      "Ġlogic": 7299,
      "4142": 7300,
      "ells": 7301,
      "Ġspam": 7302,
      "Ġspread": 7303,
      "Ġseconds": 7304,
      "quared": 7305,
      "654": 7306,
      "substrings": 7307,
      "Ġvertex": 7308,
      "Ġapi": 7309,
      "ATH": 7310,
      "ATION": 7311,
      "mission": 7312,
      "missing": 7313,
      "ÃĥÂº": 7314,
      "Ġkeywords": 7315,
      "plor": 7316,
      "Ġpreorder": 7317,
      "Ġprefer": 7318,
      "Ġpreproc": 7319,
      "lector": 7320,
      "Environment": 7321,
      "established": 7322,
      "ĠlastNode": 7323,
      "clean": 7324,
      "377": 7325,
      "Change": 7326,
      "oose": 7327,
      "Ġbuttons": 7328,
      "Ġobjects": 7329,
      "Reset": 7330,
      "Revenue": 7331,
      "Ġconverting": 7332,
      "Â¦ÂĽ?\"": 7333,
      "Ġheaders": 7334,
      "Ġindul": 7335,
      "Ġstatements": 7336,
      "oods": 7337,
      "coordinates": 7338,
      "Ġhigher": 7339,
      "ORT": 7340,
      "ORDER": 7341,
      "Ġselector": 7342,
      "Ġselecting": 7343,
      "empty": 7344,
      "Ġsymmetric": 7345,
      "Ġbreed": 7346,
      "Ġvectorizer": 7347,
      "pyplot": 7348,
      "Ġcompletes": 7349,
      "Ġtranslate": 7350,
      "Ġtransaction": 7351,
      "XXXX": 7352,
      "Ġadjective": 7353,
      "classi": 7354,
      "Â¤Âķ\"": 7355,
      "Ġformatted": 7356,
      "aeb": 7357,
      "Statement": 7358,
      "Ġprincip": 7359,
      "ensor": 7360,
      "structions": 7361,
      "Ġmiles": 7362,
      "Ġsky": 7363,
      "ĠWhat": 7364,
      "ails": 7365,
      "Anal": 7366,
      "Animation": 7367,
      "coronavirus": 7368,
      "Ġcoordinates": 7369,
      "Ġcombined": 7370,
      "]._": 7371,
      "Ġcloud": 7372,
      "Ġcompared": 7373,
      "Elements": 7374,
      "Content": 7375,
      "Ġ\"${": 7376,
      "Ġternary": 7377,
      "Ġdraws": 7378,
      "lastName": 7379,
      "ĠGoogle": 7380,
      "atis": 7381,
      "middle": 7382,
      "Ġcurse": 7383,
      "Ġduplicated": 7384,
      "Ġeffective": 7385,
      "Ġholds": 7386,
      "ĠHeader": 7387,
      "ĠHeading": 7388,
      "Commerce": 7389,
      "Ġ?>": 7390,
      "Ġfeature": 7391,
      "backgroundColor": 7392,
      "Ġparts": 7393,
      "evenshtein": 7394,
      "Ġknocks": 7395,
      "Ġ>>>": 7396,
      "ĠcoveredÃł": 7397,
      "Ġcells": 7398,
      "carousel": 7399,
      "Ġjustify": 7400,
      "Ġsink": 7401,
      "United": 7402,
      "ighb": 7403,
      "ĠContent": 7404,
      "Ġmember": 7405,
      "---+---+": 7406,
      "........................................................................................................................................................................................................................................................................................................................................................................................................................................................................................................................................................................................................................................................................................................................................................................................................................": 7407,
      "Ġvisitor": 7408,
      "Features": 7409,
      "Selector": 7410,
      "ĠAmerican": 7411,
      "querySelector": 7412,
      "ĠEmployees": 7413,
      "fully": 7414,
      "animals": 7415,
      "Ġdistin": 7416,
      "yyyy": 7417,
      "Ġtechnology": 7418,
      "Ġevaluates": 7419,
      "speed": 7420,
      "ĠestÃĥ": 7421,
      "Ġestablished": 7422,
      "Edit": 7423,
      "Ġinfinite": 7424,
      "Ġoffers": 7425,
      "ĠLeave": 7426,
      "ĠEndDate": 7427,
      "Ġnostalgic": 7428,
      "umulus": 7429,
      "Ġhexadecimal": 7430,
      "Noise": 7431,
      "\\.[": 7432,
      "radians": 7433,
      "Ġ----------------------------------------------------------------------------------------------------------------------------------------------------------------------------------------------------------------------------------------------------------------------------------------------------------------------------------------------------------------------------------------------------------------------------------------------------------------------------------------------------------------------------------------------------------------------------------------------------------------------------------------------------------------------------------------------------------------------------------------------------------------------------------------------------------------------------------------------------------------------------------------------------------------------------------------------------------------------------------------------------------------------------------------------------------------------------------------------------------------------------------------------------------------------------------------------------------------------------------------------------------------------------------------------------------------------------------------------------------------------------------------------------------------------------------------------------------------------------------------------------------------------------------------------------------------------------------------------------------------------------------------------------------------------------------------------------------------------------------------------------------------------------------------------------------------------------------------------------------------------------------------------------------------------------------------------------------------------------------------------------------------------------------------------------------------------------------------------------------------------------------------------------------------------------------------------------------------------------------------------------------------------------------------------------------------------------------------------------------------------------------------------------------------------------------------------------------------------------------------------------------------------------------------------------------------------------------------------------------------------------------------------------------------------------------------------------------------------------------------------------------------------------------------------------------------------------------------------------------------------------------------------------------------------------------------------------------------------------------------------------------------------------------------------------------------------------------------------------------------------------------------------------------------------------------------------------------------------------------------------------------------------------------------------------------------------------------------------------------------------------------------------------------------------------------------------------------------------------------------------------------------------------------------------------------------------------------------------------------------------------------------------------------------------------------------------------------------------------------------------------------------------------------------------------------------------------------------------------------------------------------------------------------------------------------------------------------------------------------------------------------------------------------------------------------------------------------------------------------------------------------------------------------------------------------------------------------------------------------------------------------------": 7434,
      "Ġamplifier": 7435,
      "Ġrounded": 7436,
      "ĠStyles": 7437,
      "ĠParameters": 7438,
      "xxxxxxxxxxxxxxxxxxxxxxxxxxxxxxxxxxxxxxxxxxxxxxxxxxxxxxxxxxxxxxxxxxxxxxxxxxxxxxxxxxxxxxxxxxxxxxxxxxxxxxxxxxxxxxxxxxxxxxxxxxxxxxxxxxxxxxxxxxxxxxxxxxxxxxxxxxxxxxxxxxxxxxxxxxxxxxxxxxxxxxxxxxxxxxxxxxxxxxxxxxxxxxxxxxxxxxxxxxxxxxxxxxxxxxxxxxxxxxxxxxxxxxxxxxxxxxxx": 7439,
      "Ġinstall": 7440,
      "Ġanalyze": 7441,
      "ĠmergeSort": 7442,
      "123456789": 7443,
      "Ġswapping": 7444,
      "rectrectrectrectrectrectrectrectrectrectrectrectrectrectrectrectrectrectrectrectrectrectrectrectrectrectrectrectrectrectrectrectrectrectrectrectrectrectrectrectrectrectrectrectrectrectrectrectrectrectrectrectrectrectrectrectrectrectrectrectrectrectrectrect": 7445,
      "Ġoccurred": 7446,
      "Ġfriends": 7447,
      "Ġdeclared": 7448,
      "ĠDBMS": 7449,
      "ĠGrocery": 7450,
      "Design": 7451,
      "Ġsuperclass": 7452,
      "Ġdynam": 7453,
      "ĠCalculator": 7454,
      "Ġreference": 7455,
      "Ġcontrol": 7456,
      "Ġcandidates": 7457,
      "tails": 7458,
      "frequency": 7459,
      "anization": 7460,
      "Ġfactors": 7461,
      "Ġpixels": 7462,
      "Ġinherently": 7463,
      "ĠFrance": 7464,
      "ĠDNA": 7465,
      "Ġrequirements": 7466,
      "Ġextends": 7467,
      "Ġlabeled": 7468,
      "Ġ`+`": 7469,
      "ĠArmstrong": 7470,
      "Ġraise": 7471,
      "Ġconsonant": 7472,
      "Ġcommunity": 7473,
      "Ġdiseases": 7474,
      "tokenize": 7475,
      "Ġtemporary": 7476,
      "execute": 7477,
      "._%": 7478,
      "callback": 7479,
      "Ġinitially": 7480,
      "ĠSnowy": 7481,
      "Ġhabit": 7482,
      "ĠValueError": 7483,
      "Ġdiscounted": 7484,
      "Ġmathematical": 7485,
      "EIGHT": 7486,
      "MakeADifference": 7487,
      "Layout": 7488,
      "Population": 7489,
      "Ġwrong": 7490,
      "operator": 7491,
      "ĠMedal": 7492,
      "Ġencountered": 7493,
      "Ġrectangular": 7494,
      "Ġprofession": 7495,
      "polygon": 7496,
      "=?^_`": 7497,
      "PushButton": 7498,
      "erisk": 7499,
      "technology": 7500,
      "Ġipsum": 7501,
      "ĠBLACK": 7502,
      "ĠPizza": 7503,
      "ĠWarehouse": 7504,
      "Ġadipiscing": 7505,
      "ĠGalile": 7506,
      "ography": 7507,
      "Integers": 7508,
      "visitor": 7509,
      "ĠKMeans": 7510,
      "Ġprincipal": 7511,
      "=?^_`{": 7512,
      "\"`.": 7513,
      "\"];": 7514,
      "%\",": 7515,
      "%);": 7516,
      "'\\": 7517,
      "(`": 7518,
      ")+": 7519,
      ")}": 7520,
      "*\"": 7521,
      "*`)": 7522,
      "+(": 7523,
      "+/": 7524,
      "+\\": 7525,
      "+-]+@[": 7526,
      ",.": 7527,
      "-%": 7528,
      "-.": 7529,
      ".\";": 7530,
      ".!#$%": 7531,
      "/`": 7532,
      "098": 7533,
      "130": 7534,
      "216": 7535,
      "299": 7536,
      "314": 7537,
      "360": 7538,
      "450": 7539,
      "483": 7540,
      "636": 7541,
      "<<": 7542,
      "=${": 7543,
      ">(": 7544,
      "AG": 7545,
      "Ah": 7546,
      "AML": 7547,
      "ASS": 7548,
      "Add": 7549,
      "Amer": 7550,
      "Ask": 7551,
      "BE": 7552,
      "BO": 7553,
      "BP": 7554,
      "Bi": 7555,
      "Bin": 7556,
      "BAR": 7557,
      "Bank": 7558,
      "Banana": 7559,
      "CF": 7560,
      "Care": 7561,
      "Copy": 7562,
      "DK": 7563,
      "Do": 7564,
      "DAS": 7565,
      "Difference": 7566,
      "FA": 7567,
      "FC": 7568,
      "Fif": 7569,
      "Fitness": 7570,
      "GP": 7571,
      "GROUP": 7572,
      "HH": 7573,
      "HP": 7574,
      "HAND": 7575,
      "Image": 7576,
      "Je": 7577,
      "Join": 7578,
      "Lab": 7579,
      "Liv": 7580,
      "LIMIT": 7581,
      "Linked": 7582,
      "Life": 7583,
      "Latin": 7584,
      "Mg": 7585,
      "Mark": 7586,
      "MTP": 7587,
      "Mem": 7588,
      "Microsoft": 7589,
      "NP": 7590,
      "OU": 7591,
      "Old": 7592,
      "Occ": 7593,
      "Plot": 7594,
      "Power": 7595,
      "Panel": 7596,
      "QR": 7597,
      "SL": 7598,
      "SO": 7599,
      "Sty": 7600,
      "Sale": 7601,
      "Sales": 7602,
      "Seven": 7603,
      "Scanner": 7604,
      "Species": 7605,
      "Squared": 7606,
      "Tk": 7607,
      "Take": 7608,
      "Tech": 7609,
      "Trans": 7610,
      "Teach": 7611,
      "Term": 7612,
      "UD": 7613,
      "Veg": 7614,
      "WN": 7615,
      "Wid": 7616,
      "WAN": 7617,
      "YOUR": 7618,
      "[(": 7619,
      "[/": 7620,
      "[@": 7621,
      "[],": 7622,
      "]],": 7623,
      "_|": 7624,
      "ait": 7625,
      "agram": 7626,
      "aff": 7627,
      "average": 7628,
      "aunch": 7629,
      "bial": 7630,
      "che": 7631,
      "cade": 7632,
      "dc": 7633,
      "df": 7634,
      "ds": 7635,
      "doc": 7636,
      "document": 7637,
      "domain": 7638,
      "diff": 7639,
      "drive": 7640,
      "ese": 7641,
      "eps": 7642,
      "four": 7643,
      "fast": 7644,
      "full": 7645,
      "flex": 7646,
      "friend": 7647,
      "func": 7648,
      "floor": 7649,
      "gt": 7650,
      "gu": 7651,
      "gz": 7652,
      "given": 7653,
      "gcd": 7654,
      "gender": 7655,
      "gifts": 7656,
      "hs": 7657,
      "half": 7658,
      "hundred": 7659,
      "ib": 7660,
      "ian": 7661,
      "imp": 7662,
      "iric": 7663,
      "images": 7664,
      "jec": 7665,
      "kit": 7666,
      "kNumThreads": 7667,
      "more": 7668,
      "mysql": 7669,
      "note": 7670,
      "oz": 7671,
      "oke": 7672,
      "pivot": 7673,
      "prefix": 7674,
      "pared": 7675,
      "rali": 7676,
      "rink": 7677,
      "roid": 7678,
      "scri": 7679,
      "say": 7680,
      "step": 7681,
      "suffix": 7682,
      "twe": 7683,
      "uck": 7684,
      "ufact": 7685,
      "van": 7686,
      "vation": 7687,
      "wing": 7688,
      "way": 7689,
      "yo": 7690,
      "ysic": 7691,
      "Â¿": 7692,
      "Ġol": 7693,
      "Ġ################################################################################################################################################################################################################################################################################################################################################################################################################################################################################################################################": 7694,
      "Ġ--------------------------------------------------------": 7695,
      "Â¦Â¿',": 7696,
      "Â¦Âķ!\"": 7697,
      "Â¦Â¯**": 7698,
      "Â¦Â¯),": 7699,
      "Â¦Â¬;": 7700,
      "Â¦Â¤**": 7701,
      "Â¦Â¤**:": 7702,
      "Â¦Â¸:**": 7703,
      "Â¦Â¸!\"": 7704,
      "Â¦Â®...": 7705,
      "Â¦Â®':": 7706,
      "Â¦ÂĹ**": 7707,
      "Â¥Âĩ": 7708,
      "Â§Âĭ'": 7709,
      "Â§ÂĢ**": 7710,
      "Â§ÂĢ):": 7711,
      "Â¦Â£',": 7712,
      "Â¦Â¥.": 7713,
      "Â¦Âĩ\")": 7714,
      "Â¦Â¡'": 7715,
      "Â¦Â¡**": 7716,
      "Â¦Â§\",": 7717,
      "Â¦ÂĽ\",": 7718,
      "Â¦Âĵ),": 7719,
      "eral": 7720,
      "team": 7721,
      "Â¦Âĥ\")": 7722,
      "Â§Âĥ.": 7723,
      "stop": 7724,
      "statistics": 7725,
      "aned": 7726,
      "anet": 7727,
      "anas": 7728,
      "anish": 7729,
      "sera": 7730,
      "servation": 7731,
      "sight": 7732,
      "sidae": 7733,
      "Â¦Âģ\",": 7734,
      "Â¦Âŀ]": 7735,
      "Ġ*...": 7736,
      "Ġ\"/": 7737,
      "Ġ\"@": 7738,
      "Ġ\"\",": 7739,
      "Ġ\"!\"": 7740,
      "utation": 7741,
      "Â§Â¨%)": 7742,
      "Ġ=(": 7743,
      "Ġ=)": 7744,
      "Ġ=.": 7745,
      "Ġ(+": 7746,
      "Ġ(((((": 7747,
      "Ġ(%)": 7748,
      "Ġ215": 7749,
      "Ġ260": 7750,
      "Ġ280": 7751,
      "Ġtd": 7752,
      "Ġtx": 7753,
      "Ġtens": 7754,
      "Ġ384": 7755,
      "Â§Â©',": 7756,
      "insert": 7757,
      "invoice": 7758,
      "intelligence": 7759,
      "Ġxxx": 7760,
      "Ġ`'": 7761,
      "Ġ`^(": 7762,
      "Â§Â«',": 7763,
      "hex": 7764,
      "heese": 7765,
      "Ġ+--------": 7766,
      "Â§Â¯:": 7767,
      "ony": 7768,
      "Ġcertain": 7769,
      "reet": 7770,
      "request": 7771,
      "revenue": 7772,
      "regorian": 7773,
      "Â§Â¬\"": 7774,
      "Â§Â¬^": 7775,
      "Â§Â¬),": 7776,
      "orence": 7777,
      "orrow": 7778,
      "Ġiy": 7779,
      "Ġide": 7780,
      "Ġill": 7781,
      "Ġimg": 7782,
      "leet": 7783,
      "lephone": 7784,
      ")).": 7785,
      "tis": 7786,
      "tiles": 7787,
      "Â§ÂŃ\"": 7788,
      "Â§ÂŃ+": 7789,
      "Â§ÂŃ),": 7790,
      "Ġfew": 7791,
      "Ġflow": 7792,
      "Ġfamily": 7793,
      "Ġfox": 7794,
      "Ġfruit": 7795,
      "Ġbr": 7796,
      "Ġbat": 7797,
      "Ġbtn": 7798,
      "Ġbrown": 7799,
      "Ġbalanced": 7800,
      "ĠpH": 7801,
      "Ġpow": 7802,
      "Ġpus": 7803,
      "Ġpay": 7804,
      "Ġpick": 7805,
      "Ġpages": 7806,
      "Ġpyt": 7807,
      "Ġpseud": 7808,
      "alz": 7809,
      "alves": 7810,
      "alphab": 7811,
      "Ġsd": 7812,
      "Ġss": 7813,
      "Ġsli": 7814,
      "Ġsoup": 7815,
      "Ġsender": 7816,
      "Ġsocial": 7817,
      "Ġsphere": 7818,
      "Ġ82": 7819,
      "ĠnÃł": 7820,
      "Ġnote": 7821,
      "Ġnatural": 7822,
      "arp": 7823,
      "arth": 7824,
      "arge": 7825,
      "Ġdur": 7826,
      "Ġduring": 7827,
      "Ġ02": 7828,
      "Ġ011011": 7829,
      "#####": 7830,
      "Ġwor": 7831,
      "Ġwent": 7832,
      "Ġwalk": 7833,
      "ĠAv": 7834,
      "ĠAve": 7835,
      "ĠAll": 7836,
      "ĠAverage": 7837,
      "ĠArg": 7838,
      "ĠCate": 7839,
      "ĠCounter": 7840,
      "ĠCFL": 7841,
      "Ġinv": 7842,
      "Ġinvestment": 7843,
      "Ġanimate": 7844,
      "Ġ9000": 7845,
      "Ġ7200": 7846,
      "Ġ729": 7847,
      "Ġmob": 7848,
      "Ġmenu": 7849,
      "Ġmutex": 7850,
      "Ġreviews": 7851,
      "Ġreminder": 7852,
      "sect": 7853,
      "selection": 7854,
      "semb": 7855,
      "oming": 7856,
      "lient": 7857,
      "lide": 7858,
      "liers": 7859,
      "Ġ109": 7860,
      "Ġtoss": 7861,
      "Ġtopp": 7862,
      "Ġtouch": 7863,
      "ĠBi": 7864,
      "ĠBo": 7865,
      "ĠBlue": 7866,
      "ĠBFS": 7867,
      "Ġeat": 7868,
      "Ġever": 7869,
      "Ġecon": 7870,
      "Ġelit": 7871,
      "Ġevents": 7872,
      "Ġeasi": 7873,
      "Ġyn": 7874,
      "Ġyahs": 7875,
      "Â¦Â¿-,": 7876,
      "amble": 7877,
      "ĠTic": 7878,
      "ĠTensor": 7879,
      "hion": 7880,
      "hilos": 7881,
      "ador": 7882,
      "adata": 7883,
      "ĠHi": 7884,
      "ĠHEIGHT": 7885,
      "love": 7886,
      "loper": 7887,
      "lothing": 7888,
      "urs": 7889,
      "ury": 7890,
      "geon": 7891,
      "rices": 7892,
      "Â¦Â¨\";": 7893,
      "Ġstates": 7894,
      "Ġstock": 7895,
      "Ġstatus": 7896,
      "Ġ{{": 7897,
      "Â¦Âĥ**)": 7898,
      "Ġrou": 7899,
      "Ġrand": 7900,
      "Ġrating": 7901,
      "Ġrock": 7902,
      "Ġroman": 7903,
      "Ġroom": 7904,
      "Ġrolled": 7905,
      "Ġdel": 7906,
      "Ġdevices": 7907,
      "Ġdelivery": 7908,
      "Ġthous": 7909,
      "edy": 7910,
      "Ġvir": 7911,
      "Ġvaccinations": 7912,
      "ollow": 7913,
      "ĠShe": 7914,
      "ĠSET": 7915,
      "ĠShift": 7916,
      "ĠSaaS": 7917,
      "Â¦Â¿\"]": 7918,
      "Ġhom": 7919,
      "Ġhalves": 7920,
      "plet": 7921,
      "Ġreturning": 7922,
      "bert": 7923,
      "Ġ2015": 7924,
      "ungeon": 7925,
      "elbr": 7926,
      "ĠFrench": 7927,
      "=\"\")": 7928,
      "ssboard": 7929,
      "ssential": 7930,
      "Ġart": 7931,
      "ĠPI": 7932,
      "ĠPa": 7933,
      "ĠPh": 7934,
      "ĠPet": 7935,
      "ĠProm": 7936,
      "ĠPEM": 7937,
      "verti": 7938,
      "ĠDo": 7939,
      "ĠDet": 7940,
      "ĠDAT": 7941,
      "ĠDwar": 7942,
      "Ġgpt": 7943,
      "Ġgzip": 7944,
      "peg": 7945,
      "########################": 7946,
      "etwork": 7947,
      "iden": 7948,
      "Ġ172": 7949,
      "Ġ179": 7950,
      "Ġ1700": 7951,
      "Ġ1774": 7952,
      "quick": 7953,
      "Ġ157": 7954,
      "Ġ1562": 7955,
      "mass": 7956,
      "otstrap": 7957,
      "Ġ193": 7958,
      "Ġ1912": 7959,
      "Ġ1967": 7960,
      "Ġ1963": 7961,
      "Ġ1903": 7962,
      "Ġ1993": 7963,
      "Ġ1977": 7964,
      "Ġ1971": 7965,
      "Ġconcept": 7966,
      "Ġconvex": 7967,
      "ilk": 7968,
      "ille": 7969,
      "mph": 7970,
      "mpty": 7971,
      "dest": 7972,
      "deviation": 7973,
      "delivery": 7974,
      "Ġload": 7975,
      "Ġloosen": 7976,
      "Â¦Â¸\")": 7977,
      "Â¦Â¸\".": 7978,
      "ÂĹÂ¦": 7979,
      "ÂĪÂļ(-": 7980,
      "ĠOr": 7981,
      "ĠObject": 7982,
      "ĠOOP": 7983,
      "ĠWH": 7984,
      "ĠWar": 7985,
      "ĠWIDTH": 7986,
      "Ġ186": 7987,
      "Ġ1880": 7988,
      "Ġ1876": 7989,
      "ashtable": 7990,
      "ashion": 7991,
      "Ġ117": 7992,
      "Ġ1100": 7993,
      "2011": 7994,
      "ĠRock": 7995,
      "ĠRiver": 7996,
      "ĠENER": 7997,
      "Ġkmeans": 7998,
      "Ġkeras": 7999,
      "Ġweigh": 8000,
      "added": 8001,
      "Ġ162": 8002,
      "Ġchunk": 8003,
      "Ġ1000000": 8004,
      "Ġclasses": 8005,
      "(\".": 8006,
      "Ġsec": 8007,
      "Ġselection": 8008,
      "Ġsemic": 8009,
      "Ġselected": 8010,
      "ipher": 8011,
      "1995": 8012,
      "1969": 8013,
      "minLength": 8014,
      "ĠGIF": 8015,
      "ĠGregorian": 8016,
      "ĠMax": 8017,
      "ĠMovie": 8018,
      "types": 8019,
      "Ġ142": 8020,
      "Ġ1440": 8021,
      "\")`": 8022,
      "ĠLCA": 8023,
      "ĠLife": 8024,
      "ĠLevenshtein": 8025,
      "ores": 8026,
      "Ġcommit": 8027,
      "Ġsil": 8028,
      "Ġsimilar": 8029,
      "ĠXX": 8030,
      "Ġlear": 8031,
      "Ġlexic": 8032,
      "usted": 8033,
      "avg": 8034,
      "avori": 8035,
      "...(": 8036,
      "Ġ9999": 8037,
      "engers": 8038,
      "Ġexamples": 8039,
      "ulates": 8040,
      "Ġwordcloud": 8041,
      "115": 8042,
      "116": 8043,
      "1100": 8044,
      "akes": 8045,
      "Ġmeasure": 8046,
      "ĠInstant": 8047,
      "ĠVeg": 8048,
      "ĠVaccinations": 8049,
      "403": 8050,
      "160": 8051,
      "161": 8052,
      "Ġsumming": 8053,
      "Ġ2004": 8054,
      "Ġ2005": 8055,
      "Ġ2008": 8056,
      "Ġ2009": 8057,
      "++.": 8058,
      "numberList": 8059,
      "-----+": 8060,
      "Ġbog": 8061,
      "Ġ(((-": 8062,
      "Ġ((()`": 8063,
      "clam": 8064,
      "336": 8065,
      "ĠYfit": 8066,
      "ĠYOUR": 8067,
      "ĠYAML": 8068,
      "culation": 8069,
      "Ġimplies": 8070,
      "layer": 8071,
      "bose": 8072,
      "answer": 8073,
      "Ġunordered": 8074,
      "account": 8075,
      "cludes": 8076,
      "ĠhistorÃł": 8077,
      "Ġdice": 8078,
      "ango": 8079,
      "anger": 8080,
      "anges": 8081,
      "ĠmyCal": 8082,
      "Ġchecked": 8083,
      "Ġatan": 8084,
      "avai": 8085,
      "2100": 8086,
      "Ġlis": 8087,
      "ÂģÂ¯": 8088,
      "Ġtaking": 8089,
      "gories": 8090,
      "Ġsubclass": 8091,
      "Ġsubsequence": 8092,
      "ĠsubRoot": 8093,
      "peci": 8094,
      "collection": 8095,
      "Ġactivity": 8096,
      "Ġacross": 8097,
      "reeze": 8098,
      "apes": 8099,
      "2003": 8100,
      "2008": 8101,
      "ffici": 8102,
      "Ġending": 8103,
      "Ġendpoint": 8104,
      "Ġopacity": 8105,
      "Ġhear": 8106,
      "Â¸ÂĢ": 8107,
      "ĠadverbÃł": 8108,
      "601": 8109,
      "Inten": 8110,
      "])`": 8111,
      "Ġnecess": 8112,
      "Ġnearest": 8113,
      "visi": 8114,
      "ocode": 8115,
      "Ġshapes": 8116,
      "brand": 8117,
      "upup": 8118,
      "Ġordered": 8119,
      "177": 8120,
      "oken": 8121,
      "istance": 8122,
      "myChar": 8123,
      "myMod": 8124,
      "Ġiterations": 8125,
      "Ġ5005": 8126,
      "Author": 8127,
      "shop": 8128,
      "shape": 8129,
      "Ġkeeps": 8130,
      "Ġ270": 8131,
      "Ġ%.": 8132,
      "Ġlate": 8133,
      "Ġempiric": 8134,
      "Ġpartic": 8135,
      "ĠWeather": 8136,
      "ĠQR": 8137,
      "ĠCOST": 8138,
      "Ġ903": 8139,
      "Ġscik": 8140,
      "Ġequations": 8141,
      "ĠrandomNumber": 8142,
      "Ġmatrices": 8143,
      "------------------------------------------------------------------------------------------------------------------------------------------------------------------------------------------------------------------------------------------------------------------------------------------------------------------------------------------------------------------------------------------------------------------------------------------------------------------------------------------------------------------------------------------------------------------------------------------------------------------------------------------------------------------------------------------------------------------------------------------------------------------------------------------------------------------------------------------------------------------------------------------------------------------------------------------------------------------------------------------------------------------------------------------------------------------------------------------------------------------------------------------------------------------------------------------------------------------------------------------------------------------------------------------------------------------------------------------------------------------------------------------------------------------------------------------------------------------------------------------------------------------------------------------------------------------------------------------------": 8144,
      "Ġgets": 8145,
      "Ġgetting": 8146,
      "Ġ802": 8147,
      "trip": 8148,
      "Ġability": 8149,
      "Ġcompon": 8150,
      "Ġcompressed": 8151,
      "555": 8152,
      "Ġspi": 8153,
      "ecure": 8154,
      "Ġ`<!": 8155,
      "pose": 8156,
      "subject": 8157,
      "ÂŁÂĩ": 8158,
      ">`),": 8159,
      "Ġsug": 8160,
      "mium": 8161,
      "perform": 8162,
      "permut": 8163,
      "percentage": 8164,
      "ĠThings": 8165,
      "Ġwidget": 8166,
      "uds": 8167,
      "Ġsolves": 8168,
      "Ġfollowed": 8169,
      "Ġapplied": 8170,
      "ĠProte": 8171,
      "Ġ__,": 8172,
      "Ġtrigger": 8173,
      "ĠStop": 8174,
      "ĠStore": 8175,
      "Ġoverall": 8176,
      "Ġenj": 8177,
      "Ġoutline": 8178,
      "Ġcorpus": 8179,
      "DateTime": 8180,
      "Ġgrade": 8181,
      "Ġgradient": 8182,
      "INCT": 8183,
      "Release": 8184,
      "fice": 8185,
      "fizz": 8186,
      "ANK": 8187,
      "icks": 8188,
      "Ġtravel": 8189,
      "Ġ(`<": 8190,
      "Ġheadings": 8191,
      "Ġindented": 8192,
      "274": 8193,
      "quired": 8194,
      "Ġcommonly": 8195,
      "ĠwindowFreq": 8196,
      "Ġstyled": 8197,
      "Heading": 8198,
      "Ġpassion": 8199,
      "Ġruns": 8200,
      "ashMap": 8201,
      "colored": 8202,
      "Ġbahs": 8203,
      "entimentInten": 8204,
      "STINCT": 8205,
      "traction": 8206,
      "Ġprovides": 8207,
      "ĠGPA": 8208,
      "Ġvisible": 8209,
      "riday": 8210,
      "ĠConnect": 8211,
      "ĠConstit": 8212,
      "cience": 8213,
      "ĠReactant": 8214,
      "234": 8215,
      "lexander": 8216,
      "Ġsolutions": 8217,
      "Â¤Âķ\",": 8218,
      "Ġapproaches": 8219,
      "cdn": 8220,
      "ĠAdded": 8221,
      "ĠCommon": 8222,
      "ĠBegin": 8223,
      "Ġretrieved": 8224,
      "ĠMyDog": 8225,
      "ÂĿÂ¤": 8226,
      "},{": 8227,
      "Ġentered": 8228,
      "Ġgoogle": 8229,
      "ĠABCD": 8230,
      "Ġ{}.": 8231,
      "chool": 8232,
      "irthday": 8233,
      "Ġcluster": 8234,
      "ÂĻÂĤ": 8235,
      "Â¦Â¸):**": 8236,
      "Ġ538": 8237,
      "args": 8238,
      "Three": 8239,
      "Ġterms": 8240,
      "healthcare": 8241,
      "ternet": 8242,
      "categories": 8243,
      "Ġerrors": 8244,
      "Ġremains": 8245,
      "Ġversions": 8246,
      "Ġdesigned": 8247,
      "Ġcurve": 8248,
      "Ġcurly": 8249,
      "ĠholdÃł": 8250,
      "Ġhelps": 8251,
      "Ġlooking": 8252,
      "Ġabsent": 8253,
      "Ġdivision": 8254,
      "Combinations": 8255,
      "Ġfeatures": 8256,
      "rono": 8257,
      "Ġbacktrack": 8258,
      "Ġallowing": 8259,
      "Ġpermutate": 8260,
      "culating": 8261,
      "Ġknicks": 8262,
      "interceptÃł": 8263,
      "ĠcoverÃł": 8264,
      "Ġbarcode": 8265,
      "Ġensuring": 8266,
      "ColumnTitle": 8267,
      "Ġcause": 8268,
      "Ġprompted": 8269,
      "Ġgreet": 8270,
      "Ġconsectetur": 8271,
      "Products": 8272,
      "QUERI": 8273,
      "Ġsinging": 8274,
      "Ġassuming": 8275,
      "Ġremoved": 8276,
      "'''": 8277,
      "Service": 8278,
      "THE": 8279,
      "ĠAlgorithm": 8280,
      "ĠCountry": 8281,
      "Ġorgan": 8282,
      "accumulator": 8283,
      "-]+\\.[": 8284,
      "Valid": 8285,
      "Ġtypically": 8286,
      "Ġbitwise": 8287,
      "ĠQuick": 8288,
      "Second": 8289,
      "white": 8290,
      "ĠLoan": 8291,
      "((((((((((((((((((((((((((((((((((((((((((((((((((((((((((((((((((((((((((((((((((((((((((((((((((((((((((((((((((((((((((((((((((((((((((((((((((((((((((((((((((((((((((((((((((((((((((((((((((((((((((((((((((((((((((((((((((((((((((((((((((((((((((((((((((((((((((((((((((((((((((((((((((((((((((((((((((((((((((((((((((((((((((((((((((((((((((((((((((((((((((((((((((((((((((((((((((((((((((((((((((((((((((((((((((((((((((((((((((((((((((((((((((((((((((((((((((((((((((((((((((((((((((((((((((((((((((((((((": 8292,
      "Ġensures": 8293,
      "placeholder": 8294,
      "Ġsalaries": 8295,
      "Ġedge": 8296,
      "Ġedges": 8297,
      "Ġappearance": 8298,
      "ĠStartDate": 8299,
      "CustomerID": 8300,
      "fraud": 8301,
      "Ġcustomi": 8302,
      "Ġinitialized": 8303,
      "Ġobtain": 8304,
      "Ġimproved": 8305,
      "Struct": 8306,
      "multip": 8307,
      "ĠMethod": 8308,
      "****************************************************************************************************************************************************************************************************************************************************************************************************************************************************************************************************************************************************************************************************************************************************************************************************************************************************************************************************************************************************************************************************************************************************************************************************************************************************************************************************************************************************************": 8309,
      "Matters": 8310,
      "Matrix": 8311,
      "birthDate": 8312,
      "Ġconcatenated": 8313,
      "AtHead": 8314,
      "equation": 8315,
      "ĠTotalRevenue": 8316,
      "Ġstars": 8317,
      "Ġsubmitted": 8318,
[...]
